. 145421
, 82578
I 63763
you 60161
to 54380
the 53106
a 45714
is 44283
and 42191
it 40170
! 39149
that 31043
not 29153
? 26427
do 24762
of 23563
in 19766
are 19708
i 18730
have 18326
... 18029
n't 17557
be 16689
he 16367
like 16129
with 16124
but 15374
for 15341
on 15119
if 13936
your 13327
her 13198
's 12807
him 12425
my 11333
me 11262
they 11138
she 10477
just 10423
know 10083
was 10048
would 9981
or 9778
can 9513
will 9224
think 9057
what 9037
You 8880
love 8842
It 8408
If 8264
so 8189
one 8181
get 7987
am 7759
about 7641
at 7614
as 7583
this 7520
out 7477
u 6990
E 6946
all 6918
then 6754
good 6543
The 6529
should 6469
want 6350
.@@ 6272
no 6267
) 6263
them 6139
go 6138
there 5990
because 5623
t 5469
up 5327
really 5079
who 4829
his 4778
`` 4736
when 4596
time 4590
'' 4567
an 4482
does 4480
( 4444
: 4414
say 4326
did 4312
some 4305
has 4240
from 4225
more 4166
too 4148
find 4065
by 4030
H@@ 3909
man 3908
guy 3883
how 3783
song 3749
Do 3738
don@@ 3724
ask 3723
Y 3662
people 3603
way 3586
He 3566
very 3564
tell 3517
TH@@ 3515
other 3492
its 3472
T 3467
y@@ 3399
best 3367
O@@ 3363
only 3358
'm 3346
see 3345
make 3341
girl 3310
- 3221
we 3118
S@@ 3058
A 3055
well 3046
W@@ 3040
movie 2989
could 2968
need 2965
much 2930
try 2869
That 2831
men 2817
friends 2804
someone 2769
right 2759
YO@@ 2716
B@@ 2714
first 2706
now 2699
their 2698
never 2696
sure 2691
believe 2683
why 2681
h@@ 2675
person 2672
friend 2648
U 2645
had 2640
any 2633
always 2582
something 2547
M@@ 2541
L@@ 2539
still 2537
My 2537
E@@ 2528
even 2528
look 2514
got 2492
guys 2486
.. 2483
.com 2480
than 2467
d@@ 2461
No 2441
life 2412
women 2409
going 2385
o 2364
music 2362
Y@@ 2349
D@@ 2332
T@@ 2326
question 2311
back 2310
F@@ 2304
; 2290
They 2284
sex 2279
great 2276
answer 2271
things 2271
'@@ 2256
better 2197
feel 2173
She 2172
were 2166
thing 2139
give 2104
girls 2099
2 2093
What 2092
're 2086
K@@ 2075
U@@ 2065
mean 2047
old 2043
ever 2033
l@@ 2031
I@@ 2027
L 2021
Yes 1999
But 1993
yourself 1989
show 1978
th@@ 1907
both 1905
been 1895
bad 1890
may 1887
m@@ 1886
let 1884
said 1868
most 1865
w@@ 1821
day 1808
G@@ 1802
There 1799
ca 1788
' 1779
lot 1778
yes 1777
take 1774
ER 1762
married 1757
name 1750
over 1745
P@@ 1736
also 1733
many 1699
V@@ 1693
c@@ 1688
same 1688
nice 1687
k@@ 1685
looking 1677
THE 1660
two 1660
enjoy 1646
N@@ 1638
woman 1637
*@@ 1636
though 1632
'll 1606
AT 1599
off 1598
ats 1594
relationship 1594
work 1584
anything 1584
And 1571
IS 1571
ur 1562
fun 1558
A@@ 1549
es 1548
nt 1537
b@@ 1527
talk 1527
watch 1526
TO 1521
where 1511
might 1511
care 1477
years 1466
heard 1464
un@@ 1455
Just 1455
a@@ 1454
big 1450
being 1442
AND 1440
im 1438
use 1428
D 1423
& 1416
hope 1413
LO@@ 1411
NO@@ 1399
long 1396
else 1395
probably 1393
ING 1391
t@@ 1382
around 1378
funny 1361
maybe 1359
help 1358
oo@@ 1350
z 1345
IT 1335
able 1332
here 1331
before 1320
little 1314
wrong 1313
after 1301
che@@ 1294
In 1293
This 1291
Why 1290
songs 1288
come 1283
attractive 1277
na 1275
n 1274
K 1272
date 1266
AL@@ 1265
S 1253
ol 1242
y 1240
again 1238
new 1229
down 1229
s@@ 1220
own 1220
boyfriend 1204
age 1200
us 1197
end 1197
says 1194
n@@ 1188
RE@@ 1187
wait 1185
've 1184
pretty 1180
hard 1177
b 1173
keep 1173
once 1168
depends 1163
likes 1161
al@@ 1158
play 1157
p@@ 1140
doing 1139
another 1137
R@@ 1132
When 1125
movies 1123
ER@@ 1114
www.@@ 1104
while 1104
ON@@ 1100
ch@@ 1099
luck 1098
matter 1090
How 1088
e 1087
which 1083
r 1080
p 1077
wants 1075
/@@ 1069
into 1067
M 1065
thought 1064
C@@ 1061
in@@ 1060
AN@@ 1050
guess 1046
favorite 1044
F 1042
looks 1042
called 1035
ST@@ 1033
HO@@ 1028
ah 1026
happy 1025
1 1023
listen 1022
d 1017
UT 1016
Well 1016
nothing 1015
IN@@ 1013
r@@ 1010
seen 1005
So 1005
Is 999
anyone 998
3 996
O 995
ha@@ 994
real 993
ant 992
k 991
either 991
es@@ 990
j@@ 988
wife 986
N 973
AR@@ 973
ay 968
already 961
e@@ 956
must 956
hot 954
W 952
course 950
f@@ 948
call 945
young 943
ES 942
H 940
Good 939
kind 937
Please 930
m 928
sorry 928
please 928
such 925
US@@ 923
Your 920
search 918
money 917
remember 915
We 915
J@@ 913
understand 913
having 909
move 909
ly 908
band 905
last 905
website 898
year 897
true 894
away 885
4 884
made 884
s 883
every 880
sounds 877
yet 874
those 869
'd 865
type 864
interested 862
different 859
girlfriend 859
DO 858
makes 855
until 855
AT@@ 853
put 853
Go 851
start 851
together 851
leave 851
boy 844
read 843
g@@ 836
WH@@ 834
sh@@ 833
used 833
Because 831
getting 823
stuff 821
ot 821
re@@ 820
i@@ 817
SO@@ 816
stop 814
without 811
mother 811
gay 808
found 807
mind 805
live 804
agree 797
Not 792
questions 791
asking 789
talking 786
trying 786
stupid 785
enough 785
ye@@ 784
reason 782
trust 778
however 777
each 776
side 775
means 769
loves 767
free 766
times 766
do@@ 763
IN 761
home 761
ED 760
h 760
problem 760
sing 757
wish 757
cool 756
left 749
buy 746
actually 745
Try 743
Are 739
baby 737
* 736
Yahoo 736
download 734
idea 732
ey 729
Oh 729
ya 727
hate 727
er 722
-@@ 719
UR 719
li@@ 719
least 711
head 711
cu@@ 710
u@@ 706
school 706
everyone 703
place 700
everything 700
kids 698
ME 697
husband 697
SE@@ 696
myself 690
saw 690
ow 688
heart 688
EL@@ 687
ire 687
hurt 687
di@@ 686
since 686
ok 685
Love 683
told 682
worry 680
cause 675
Some 674
AV@@ 674
G 672
prefer 670
next 669
others 669
check 663
@ 661
thinking 659
it@@ 658
gets 655
ate 655
ing 654
ah@@ 653
wo 653
Have 651
R 651
worth 650
5 648
hair 648
ew@@ 643
family 642
asked 641
our 641
Then 640
Maybe 639
points 637
g 635
dating 634
_@@ 634
v 633
EN 632
LD 629
IT@@ 629
opinion 629
choose 629
OF 627
feelings 626
seems 625
king 623
done 620
$ 619
v@@ 614
ry 612
kiss 611
these 610
ve 609
ude 605
sexual 605
unless 599
However 596
-- 594
AS 593
IL@@ 593
break 593
forget 593
ones 592
night 592
gon 591
stay 591
hear 590
rock 590
sound 588
simply 588
saying 588
number 587
GO@@ 586
AS@@ 585
bit 583
10 580
Be 580
phone 579
pick 579
flir@@ 579
CO@@ 577
world 577
wh@@ 577
CA@@ 575
be@@ 574
hoo 573
son 572
st@@ 568
wan 566
few 564
bl@@ 563
information 562
wanted 561
went 561
BE@@ 559
self 557
Tell 557
become 556
sexy 555
quite 554
All 553
meet 553
LI@@ 552
children 551
ME@@ 550
ty 549
happen 548
One 547
f 547
liked 546
ks 545
loved 545
marriage 545
cute 540
chance 538
o@@ 537
older 536
similar 536
eyes 536
ated 536
fat 535
l 534
boys 534
oh 533
hell 531
ta 531
goes 531
To 530
female 530
Now 529
AN 528
mom 527
anymore 526
ok@@ 526
situation 524
As 521
three 520
cheating 518
BE 517
OR@@ 516
etc 515
Who 514
en 513
possible 513
email 510
NE@@ 505
act 505
watching 504
works 504
RO@@ 502
marry 500
using 499
below 499
lyrics 499
Get 498
ON 498
wi@@ 493
For 493
days 491
seem 490
AC@@ 490
win 490
male 489
Men 489
sometimes 489
at@@ 488
crazy 487
im@@ 486
ed 486
as@@ 485
easy 484
between 484
ick 482
beautiful 482
far 481
child 481
comes 478
site 478
HI@@ 478
later 477
il 477
album 476
EN@@ 475
x 474
UN@@ 474
needs 474
/ 473
Ch@@ 473
em 472
fan 472
ha 471
ting 471
Ask 469
ar@@ 467
NO 466
WO@@ 465
sp@@ 465
ent 464
CH@@ 463
goo@@ 463
Or 462
fre@@ 462
likely 462
mine 461
se 460
am@@ 459
is@@ 458
lie 458
sh 457
RI@@ 456
inda 456
First 456
PL@@ 455
part 455
house 455
through 454
important 452
dance 449
Most 449
knows 448
sister 448
rap 447
video 446
Did 445
IR@@ 444
alone 444
change 444
ways 442
su@@ 440
anyway 440
book 438
mm 437
point 437
met 437
God 436
soon 435
SH@@ 435
on@@ 434
face 434
second 434
ts 434
honest 434
ter 433
playing 433
WITH 433
difficult 433
father 432
advice 431
or@@ 430
ago 430
awesome 428
ad@@ 427
words 427
correct 427
internet 426
GE@@ 426
send 426
single 425
definitely 424
uck 424
CD 423
Z@@ 422
P 422
less 422
FOR 419
Perhaps 419
body 418
often 418
ready 418
rest 416
spend 415
he@@ 415
close 415
lots 414
ex 413
dis@@ 412
ri@@ 408
certain 407
learn 406
fall 406
fine 405
truly 405
answers 404
high 404
tried 402
B 402
ES@@ 401
co@@ 401
ic 401
black 401
Let 400
LE@@ 399
Day 399
voice 399
deal 396
kin 395
em@@ 395
hang 394
whatever 394
squares 394
est 393
making 393
an@@ 393
experience 392
en@@ 390
DO@@ 390
suggest 390
EV@@ 389
online 389
list 388
bed 388
ass 387
x@@ 387
brother 387
me@@ 386
ab@@ 386
Even 385
At 385
hu@@ 384
ugly 384
job 384
shy 384
consider 382
er@@ 381
Hey 381
especially 380
singer 379
fact 379
On 379
word 378
usually 378
feels 378
c 378
cares 377
came 377
lo@@ 376
rather 375
afraid 375
turn 375
large 374
el@@ 373
suc@@ 373
AB@@ 372
UR@@ 369
happens 369
= 368
ie 368
knew 367
die 366
ers 366
se@@ 365
ma 365
ur@@ 364
dum@@ 364
special 364
TV 363
pay 362
full 362
eck 360
BO@@ 359
longer 359
eat 358
Of 358
per@@ 358
# 357
film 357
50 356
ys 356
hand 355
hit 354
ama 354
partner 354
ding 353
AK@@ 353
kis@@ 353
television 353
aware 353
happened 352
bo@@ 351
feeling 350
week 349
American 348
onde 348
serious 348
case 347
shows 345
Yeah 345
ea 345
thinks 345
Chris 344
watched 343
under 343
jo@@ 343
five 343
ten 342
no@@ 342
parents 342
line 342
almost 341
lim@@ 341
attracted 341
'S 340
MO@@ 340
6 340
played 339
walk 339
ap@@ 339
Like 338
PE@@ 338
th 338
TR@@ 337
WA@@ 336
s.com 335
dad 334
whole 333
sad 333
go@@ 332
Me 331
picture 331
attention 330
LL@@ 329
fr@@ 329
run 329
lose 329
wonder 328
doubt 328
coming 325
Th@@ 324
CAN 323
mad 323
country 323
small 323
TO@@ 321
2@@ 321
romantic 321
Does 321
won@@ 321
choice 321
space 321
op@@ 320
IS@@ 320
DE@@ 319
Also 319
OR 319
waiting 318
speak 317
Take 317
After 316
joke 316
game 316
gu@@ 315
AM@@ 315
past 314
whether 314
size 313
AI@@ 312
gle 312
Green 312
ally 311
vir@@ 311
mature 311
desire 310
instead 309
ol@@ 309
ther@@ 308
ric@@ 308
ky 307
X 307
group 307
lost 306
shes 306
totally 306
People 306
dy 306
In@@ 305
IC@@ 304
kid 304
straight 303
bands 302
order 302
helps 301
Can 301
ice 301
beat 301
weird 301
z@@ 300
late 300
ak 300
inter@@ 300
months 299
con@@ 299
IV@@ 299
couple 299
started 299
laugh 298
AD 298
car 298
recommend 298
Here 297
interesting 297
gave 297
sleep 297
ar 296
de@@ 294
Li@@ 294
ION 292
pe@@ 291
ds 291
sings 290
white 290
St@@ 290
ing@@ 290
mar@@ 289
problems 289
pp@@ 288
ch 288
ly@@ 288
computer 288
um@@ 288
Sor@@ 288
guitar 286
15 286
ic@@ 286
UC@@ 285
um 285
top 285
seeing 285
telling 285
ag@@ 284
Would 284
perfect 284
us@@ 283
popular 283
listening 283
lady 282
meant 282
le 282
ite 281
write 280
ted 280
wedding 280
gr@@ 279
share 279
ind 279
al 278
radio 278
you@@ 278
ous 278
sign 278
contact 278
OK 277
po@@ 277
personality 277
sweet 277
gone 277
el 276
Girls 276
Paris 275
Its 275
ni@@ 274
open 273
18 273
Although 273
cra@@ 272
bi@@ 272
normal 272
pre@@ 272
exactly 271
click 271
Lim@@ 271
8 270
ny 270
moment 270
continue 270
along 269
His 269
Look 269
room 268
any@@ 268
ac 268
episode 267
dog 267
Re@@ 267
ker 267
si@@ 266
broke 266
Gu@@ 266
7 265
EST 265
sit 265
respect 265
wear 264
Make 264
Give 264
yo 263
DS 263
sense 263
br@@ 262
miss 262
ours 262
dream 262
kill 262
da 261
ed@@ 261
Best 261
amazing 261
ck 260
link 260
ating 260
ac@@ 259
et 259
takes 259
NA@@ 258
ina 257
club 257
red 257
HE@@ 257
lu@@ 256
om@@ 256
during 256
sed 255
stand 255
ring 255
wonderful 255
soo@@ 254
worst 254
GO 252
smart 252
chat 252
faithful 252
ro@@ 251
bs 251
pl@@ 251
looked 251
bu@@ 251
available 251
20 250
series 250
Only 250
pregnant 250
half 250
careful 250
season 249
dead 249
cl@@ 249
activity 249
os 248
Girl 248
Be@@ 248
ity 248
ps 248
le@@ 248
four 248
simple 248
ater 248
future 247
3@@ 246
car@@ 246
artist 246
story 245
LE 245
games 244
all@@ 244
New 244
fight 244
estly 244
Women 243
id 242
IO@@ 242
du@@ 242
the@@ 242
decide 242
realize 242
strong 241
bet 241
jer@@ 241
ay@@ 240
kid@@ 240
today 240
Will 240
daughter 239
ce 239
hi@@ 239
boo@@ 239
version 239
homosexual 239
store 238
9 238
ke 238
Al@@ 238
willing 238
working 238
om 238
truth 238
gent@@ 238
down@@ 237
suppose 237
smile 237
set 237
ance 236
short 236
appreciate 236
ave 235
Sh@@ 235
als 235
enjoyed 235
sick 234
mo@@ 234
control 234
Tom 233
boring 233
sort 233
visit 233
ope 232
ST 232
dun@@ 232
jealous 232
w 232
perhaps 231
4@@ 231
oo 231
waste 231
ely 231
com@@ 230
der 230
ge 230
somebody 230
Once 230
themselves 229
butt 228
certainly 228
Man 228
younger 228
return 228
due 227
Luc@@ 227
difference 227
hands 226
> 226
X@@ 226
ore 226
to@@ 225
although 225
por@@ 225
ill 225
ai 225
personal 225
twice 225
inf@@ 224
fast 224
ney 224
style 224
pen@@ 224
ahead 224
TT@@ 223
somewhere 223
fl@@ 223
up@@ 223
himself 223
hold 223
front 223
deserve 222
named 222
figure 222
bring 221
actor 221
inside 221
allow 221
enjoy@@ 221
Sometimes 221
lead 220
ation 220
strange 220
Google 220
te@@ 220
mom@@ 220
till 220
tr@@ 219
took 219
sm@@ 219
Where 219
fish 219
eye 219
TIM@@ 219
hot@@ 218
woul@@ 218
purchase 218
AL 217
Rock 217
address 217
ex@@ 216
ame 216
SE 216
C 216
IM@@ 216
ti@@ 216
friendship 216
apologize 216
player 215
dam@@ 215
ID 215
Sp@@ 214
les 214
id@@ 214
drink 214
Her 214
ley 214
WOR@@ 213
Big 213
personally 213
singing 213
dinner 213
ates 212
st 212
involved 212
acting 212
door 211
qu@@ 211
An@@ 211
punk 211
ends 211
scared 211
comfortable 211
UP 210
thin 210
hon@@ 210
my@@ 210
Hope 209
AD@@ 209
eb@@ 209
for@@ 209
fake 209
party 209
IF@@ 208
key 208
By 208
air 208
Mar@@ 207
bec@@ 207
sk@@ 207
metal 207
issue 207
Z 206
ge@@ 205
ary 205
e-mail 205
AM 205
aw@@ 205
Boy 205
so@@ 205
flowers 205
taking 205
man@@ 204
13 204
intelligent 204
ad 204
Should 204
attempt 204
sl@@ 203
END 203
defin@@ 203
TS 203
bother 203
wondering 203
plus 202
az@@ 202
known 202
drunk 201
worse 200
message 200
god 199
ff 199
idi@@ 199
16 199
step 199
Simp@@ 199
green 199
forever 199
tend 199
decision 199
mor@@ 198
ase 198
shot 198
ses 197
star 197
pi@@ 197
DVD 197
died 197
angry 197
min@@ 196
busy 196
et@@ 196
action 196
accept 196
ep 195
il@@ 195
Baby 195
cat 195
month 195
character 195
av@@ 194
lucky 194
easier 194
six 194
relationships 194
unsure 194
ine 193
GE 193
mail 193
trouble 193
unable 193
girl@@ 192
Never 192
ess 192
thanks 192
Dep@@ 192
mistake 192
matters 192
gift 192
fi@@ 191
felt 191
conversation 191
ica 190
ut 190
En@@ 190
obviously 190
area 190
tru@@ 190
favorites 189
12 189
ness 189
lives 189
blue 189
behind 189
supposed 189
giving 189
minutes 188
born 188
tie 188
title 188
Hello 188
treat 187
cr@@ 187
cre@@ 187
re 187
pictures 187
death 186
amer@@ 186
Idol 186
grade 186
won 185
Life 185
kick 185
wit 185
bar 184
ent@@ 184
admit 184
With 184
completely 184
dislike 184
receive 183
King 183
dies 183
famous 183
SA@@ 183
ust 183
Keep 183
spell 182
Show 182
PO@@ 182
Harry 182
LL 182
amount 182
huge 182
gi@@ 181
cut 181
worked 180
ster 180
Black 180
over@@ 180
tells 179
pain 179
Le@@ 179
follow 179
pants 179
sw@@ 179
mate 179
gives 178
thank 178
Out 177
videos 177
issues 177
state 177
terrible 177
ber 176
individual 176
above 176
rent 176
bre@@ 176
US 175
ll 175
pro@@ 175
gg@@ 175
add 175
stick 175
grow 175
positive 175
books 174
ING@@ 174
low 174
females 174
birthday 173
UT@@ 173
annoying 173
cry 172
pop 172
e-@@ 172
upon 172
explain 172
caught 172
your@@ 172
boy@@ 171
ton 171
hil@@ 171
Remember 171
ze 171
1@@ 171
dreams 171
Boys 171
inform 171
pr@@ 170
ana 170
sc@@ 170
mouth 170
scary 170
places 170
notice 170
currently 170
significant 170
leman 170
her@@ 169
vote 169
taste 169
none 169
card 169
De@@ 169
FOR@@ 169
ait 169
option 169
sexually 169
color 168
slow 168
box 168
referring 168
searching 167
kn@@ 167
ately 167
program 167
of@@ 167
dump 167
100 166
food 166
answered 166
% 166
drive 166
plan 166
ful 166
per 166
upset 166
asks 166
loving 166
catch 165
beach 165
rs 165
FE@@ 165
sang 165
Since 165
bigger 165
quit 165
lover 165
expect 165
Johnny 165
Unless 165
vi@@ 164
fun@@ 164
water 164
Don@@ 164
considered 164
original 164
fell 164
Kelly 164
AP@@ 164
GHT 164
sting 164
Q@@ 164
outside 164
ir@@ 163
elly 163
ris 163
quality 163
decent 163
ence 163
ke@@ 163
seriously 163
gin 163
dollars 163
divorce 163
romance 162
plenty 162
la 162
except 162
ought 162
eng@@ 162
mess@@ 162
regret 162
AR 161
mess 161
him@@ 161
begin 161
living 160
view 160
bit@@ 160
example 159
Wh@@ 159
RA@@ 159
aint 159
sites 159
KS 159
arious 159
ru@@ 159
e.@@ 159
30 159
ob@@ 159
jokes 159
hurts 159
80 158
classic 158
exist 158
hours 158
ens 158
ANY 158
Everyone 157
WE@@ 157
Jo@@ 157
net 157
Hon@@ 157
asts 157
crush 157
imagine 157
ties 157
appear 157
park 156
ies 156
class 156
Thank 156
ack 155
excellent 155
reading 155
par@@ 155
Taylor 155
hi 155
avoid 155
deep 155
otherwise 155
merely 155
ek 154
Mo@@ 154
ep@@ 154
web 154
clue 154
PRO@@ 154
dress 154
interest 154
whom 154
ics 153
tu@@ 153
news 153
ma@@ 153
company 153
given 153
recall 152
lies 152
s.@@ 151
out@@ 151
rich 151
ENT 151
ne@@ 151
nature 151
17 151
response 151
finding 151
speaking 151
recently 150
bought 150
WHO 150
dirty 150
plays 150
fin@@ 150
MAR@@ 149
weight 149
addy 149
eventually 149
feet 149
released 149
possibly 149
finally 149
John 148
nobody 148
ans 148
anywhere 148
ked 148
New@@ 148
5@@ 148
real@@ 148
Both 148
taken 148
town 148
From 148
extremely 148
Many 148
some@@ 147
col@@ 147
glad 147
ment 147
Bl@@ 147
Jack 147
Was 147
ong 146
alive 146
form 146
While 146
21 146
ruin 146
mi@@ 145
Bu@@ 145
tin 145
street 145
Di@@ 145
cost 145
My@@ 145
ladies 145
appearance 145
] 144
station 144
killed 144
human 144
Say 144
college 144
honey 144
names 144
confident 144
concerned 144
lying 143
`@@ 143
ard 143
14 143
Brown 143
fire 143
sten 143
bout 143
Star 143
tough 143
obvious 143
Ok@@ 143
Got 142
EM@@ 142
mp@@ 142
11 142
record 141
anybody 141
tion 141
de 141
ver@@ 141
9@@ 141
Little 141
humor 141
loo@@ 141
happ@@ 141
sel@@ 141
test 141
ball 140
ending 140
8@@ 140
ph@@ 140
fool 140
missed 140
touch 140
Think 140
cartoon 139
nor 139
CE@@ 139
ai@@ 139
Mr. 139
reality 139
fe@@ 139
helped 139
fit 139
present 139
meaning 138
bar@@ 138
Hi 138
ee 138
herself 138
ba 138
epy 138
UE@@ 138
relations 138
ra@@ 137
adult 137
Jackson 137
talented 137
ve@@ 137
Chuck 137
Christmas 137
URE 137
forgot 137
level 137
vent 137
Come 137
uses 137
physical 137
actions 137
fond 137
MA@@ 136
illegal 136
channel 136
fo@@ 136
Car@@ 136
legs 136
cousin 136
performed 136
provide 136
acceptable 136
everybody 135
Go@@ 135
af@@ 135
ican 135
familiar 135
Michael 135
ta@@ 135
J 135
complete 135
absolutely 134
near 134
stal@@ 134
ne 134
appears 134
magazine 133
oc@@ 133
Joe 133
mention 133
Song 133
ling 133
ap 133
tall 133
dancing 133
stuck 133
smell 133
became 133
acts 133
clothes 132
mostly 132
AG@@ 132
tired 132
count 132
str@@ 132
EX@@ 132
hum@@ 132
third 132
ings 132
cheap 132
reasons 132
tic@@ 131
Ro@@ 131
pod 131
gre@@ 131
calls 131
hor@@ 131
keeps 131
location 131
IM 130
paid 130
legal 130
ID@@ 130
local 130
horrible 130
Time 130
brown 130
Two 130
engine 130
join 130
ROM 130
English 130
road 130
save 130
Vi@@ 130
clear 130
Con@@ 129
websites 129
copy 129
greatest 129
2nd 129
silly 129
Du@@ 129
ash@@ 129
play@@ 129
George 129
dle 129
against 129
sy 129
art 129
confused 129
40 129
episodes 128
1st 128
6@@ 128
Fall 127
poor 127
Bo@@ 127
ec@@ 127
essing 127
business 127
ble 127
eve 127
manner 127
towards 127
Probably 126
gs 126
scene 126
learned 126
dated 126
hanging 126
advise 126
broken 126
males 126
ignore 126
surprised 125
For@@ 125
early 125
Nothing 125
Music 125
som@@ 125
clean 125
ace 125
bored 125
disgu@@ 125
turned 125
shirt 125
discuss 125
Movie 124
drugs 124
ERS 124
every@@ 124
ages 124
stars 124
V 124
light 124
chocolate 124
middle 124
Brit@@ 123
ak@@ 123
des@@ 123
nose 123
forward 123
ler 123
SW@@ 123
wearing 123
talent 123
calling 123
lips 123
average 123
item 123
rush 123
ell@@ 122
Hilton 122
mu@@ 122
pu@@ 122
FI@@ 122
Park 122
James 122
har@@ 122
negative 122
nic@@ 122
May 122
items 122
te 121
Bad 121
ast 121
ons 121
ther 121
Bob 121
ended 121
we@@ 121
sell 121
NT 121
ond@@ 121
details 121
ideas 121
end@@ 120
ght 120
beer 120
section 120
Family 120
25 120
tonight 120
Trust 120
morning 120
lunch 120
musical 120
perform 120
Either 120
position 120
pleasant 120
ain 119
sti@@ 119
Ca 119
These 119
ells 119
DAY 119
Q 119
Pink 119
quickly 119
An 119
Buy 119
Someone 119
White 119
everyday 119
Br@@ 119
soul 119
throw 119
approach 119
yed 119
individuals 119
sent 118
Se@@ 118
Plus 118
ear 118
back@@ 118
depend 118
lish 118
ello 118
expensive 118
actress 118
Un@@ 118
ICE 118
match 118
odd 118
sight 118
Am 117
David 117
curious 117
power 117
fy 117
EC@@ 117
Person@@ 117
force 117
op 117
mis@@ 117
Do@@ 117
dates 117
ese 117
answering 117
gh@@ 117
dark 117
bay 116
sex@@ 116
post 116
Paul 116
nasty 116
Hell 116
eating 116
pass 116
handsome 116
particular 116
MTV 115
event 115
concert 115
Potter 115
Those 115
blind 115
ud@@ 115
running 115
total 115
cou@@ 114
del@@ 114
ue 114
ati@@ 114
Could 114
lesbian 114
Right 114
Use 114
options 114
See 114
page 113
[ 113
bye 113
BY 113
lin@@ 113
JO@@ 113
a-@@ 113
mood 113
chicken 113
gross 113
Any 113
track 113
starts 113
laughing 113
several 113
addic@@ 113
regardless 113
HERE 112
films 112
tal@@ 112
FO@@ 112
pret@@ 112
ut@@ 112
heavy 112
gie 112
shop 112
based 112
CE 112
MOV@@ 112
wise 112
thoughts 111
Sure 111
wrote 111
ka 111
uc@@ 111
wood 111
earth 111
shut 111
common 111
mon@@ 111
sum@@ 111
meeting 111
include 111
spouse 111
ev@@ 110
Ex@@ 110
paper 110
tor@@ 110
bunch 110
ang 110
dear 110
shoul@@ 110
Sex 110
artists 110
spelling 110
EP 110
forgive 110
missing 110
ess@@ 109
Norris 109
SP@@ 109
bie 109
fighting 109
Cl@@ 109
brain 109
period 109
SU@@ 109
T.@@ 109
ast@@ 109
inny 109
naked 109
further 109
remain 109
knowledge 109
behavior 109
tic 108
loud 108
ots 108
au@@ 108
els 108
KE@@ 108
Too 108
super@@ 108
letter 108
enter 108
Ste@@ 108
Young 108
ple 108
rid@@ 108
Mc@@ 108
Lo@@ 108
ell 108
rec@@ 108
ART 108
entire 108
cold 108
enjoys 108
fav 107
rid 107
aly 107
Whatever 107
tomorrow 107
ator 107
Jessica 107
ho@@ 107
=@@ 107
essed 107
hip 107
hide 107
Mon@@ 107
ump 107
Stop 107
fan@@ 107
neck 107
ake 107
appealing 107
fair 107
current 107
needed 107
offer 107
good@@ 106
respond 106
ank 106
Actually 106
DJ 106
Gr@@ 106
blood 106
don 106
jail 106
quiet 106
lets 106
walking 106
Man@@ 106
Additionally 106
inqu@@ 106
badly 105
following 105
org@@ 105
ying 105
Wi@@ 105
gur@@ 105
everywhere 105
ul@@ 105
church 105
Cruise 105
burn 105
humorous 105
showing 105
successful 105
addition 105
relax 105
fly 104
turns 104
IC 104
24 104
90 104
super 104
rapper 104
2006 104
Hi@@ 104
changed 104
loose 104
pleasure 104
Guy 104
pink 104
public 104
received 104
summer 103
^@@ 103
hop 103
bass 103
cream 103
sometime 103
ci@@ 103
beginning 103
weeks 103
y-@@ 103
eight 103
voted 103
confidence 103
invite 103
Talk 103
disagree 103
appropriate 103
obtain 103
ach@@ 102
excited 102
ber@@ 102
safe 102
ia 102
hour 102
neither 102
Tr@@ 102
team 102
practice 102
row 102
shoes 102
note 102
der@@ 101
load 101
genre 101
enger 101
support 101
Unfortunately 101
loser 101
dr@@ 101
ently 101
excuse 101
ure 101
joy 101
emotions 101
Being 101
cor@@ 100
star@@ 100
hole 100
AF@@ 100
Queen 100
hearing 100
di 100
cover 100
nine 100
seek 100
helpful 100
war@@ 100
spending 100
ex-@@ 100
types 100
spelled 100
fri@@ 100
Lord 100
drama 100
Pe@@ 100
emotional 100
previously 100
bab@@ 99
Up 99
scre@@ 99
teeth 99
subject 99
finger 99
bud@@ 99
ors 99
Co@@ 99
ner@@ 99
wa@@ 99
sy@@ 99
teen 99
zz@@ 99
moving 99
ink 99
gin@@ 99
under@@ 98
awful 98
win@@ 98
cent 98
friend@@ 98
doctor 98
den 98
RE 98
1.@@ 98
Every 98
attitude 98
dre@@ 98
shower 98
sta 97
RIGHT 97
ane 97
knock 97
mic@@ 97
obsessed 97
’ 97
Dr. 97
aa 97
city 97
mentioned 97
frequently 97
atar 97
sports 97
assume 97
intimate 97
< 96
ines 96
chose 96
sons 96
Che@@ 96
IG@@ 96
lines 96
Jol@@ 96
moved 96
Angel@@ 96
sung 96
push 96
ou@@ 96
fans 96
opportunity 96
stated 96
Jones 95
ju@@ 95
un 95
secret 95
0@@ 95
BL@@ 95
ach 95
Ne@@ 95
tape 95
main 95
albums 95
driving 95
noticed 95
tive 95
jump 95
coffee 95
fooli@@ 95
pursue 95
engage 95
ver 94
Back 94
^ 94
CA 94
House 94
fat@@ 94
mat@@ 94
singers 94
promise 94
extra 94
whenever 94
IP 94
police 94
Start 94
located 94
Bre@@ 94
tongue 94
physically 94
affection 94
~ 93
MP@@ 93
drop 93
Last 93
ounds 93
Search 93
ears 93
related 93
ter@@ 93
minute 93
experienced 93
normally 93
worried 93
focus 93
ow@@ 92
hom@@ 92
self-@@ 92
listed 92
writing 92
York 92
os@@ 92
moon 92
tions 92
finds 92
America 92
titled 92
gifts 92
discover 92
O.@@ 91
field 91
gle@@ 91
anime 91
bottom 91
19 91
Red 91
swee@@ 91
pull 91
Down 91
Billy 91
ant@@ 91
aking 91
Their 91
decided 91
ship 91
MI@@ 90
nie 90
get@@ 90
celebrity 90
ain@@ 90
Su@@ 90
TE@@ 90
aw 90
loads 90
led 90
stri@@ 90
wanting 90
ED@@ 90
talks 90
ger 90
judge 90
Woman 90
Brad 90
attend 90
favor 90
apart 90
easily 90
affair 90
law 89
signs 89
wins 89
natural 89
somewhat 89
land 89
akes 89
j 89
CH 89
handle 89
Christian 89
chi@@ 89
ols 89
highly 89
brothers 89
Vegas 89
lazy 89
ory 89
casual 89
know@@ 88
theme 88
ld@@ 88
Mi@@ 88
picked 88
ear@@ 88
leaving 88
tha 88
bel@@ 88
seven 88
member 88
file 88
Jesus 88
clubs 88
sleeping 88
chances 88
overweight 88
possess 88
locate 88
asha 87
Happy 87
cheese 87
thier 87
+ 87
Ri@@ 87
PAR@@ 87
Me@@ 87
ET 87
written 87
ss 87
tw@@ 87
Beatles 87
wives 87
previous 87
ole 87
person@@ 87
chest 87
knowing 87
ile 87
era 87
including 87
ster@@ 87
finish 87
commitment 87
MM@@ 86
ella 86
ery 86
High 86
rocks 86
UL@@ 86
NY 86
Ho@@ 86
via 86
window 86
stopped 86
worthy 86
West 86
reach 86
Always 86
Hot 86
7@@ 86
NS@@ 86
NS 86
race 86
fantastic 86
idol 86
caring 86
Next 86
term 86
effort 86
immediately 86
model 85
soundtrack 85
hoo@@ 85
correctly 85
wal@@ 85
ara 85
ez 85
ali@@ 85
Bro@@ 85
ot@@ 85
ride 85
ei@@ 85
shame 85
hopefully 85
com 85
icks 85
create 85
bear@@ 85
ious 85
ining 85
eive 85
April 85
fully 85
lonely 85
twenty-@@ 85
creative 84
bra 84
candy 84
biggest 84
ves 84
passed 84
anger 84
la@@ 84
engaged 84
former 84
Beli@@ 84
created 84
ability 84
evil 84
performance 84
hits 84
twenty 84
secure 84
mas 83
pop@@ 83
kie 83
sub@@ 83
amaz@@ 83
becomes 83
Dave 83
kept 83
fix 83
Great 83
Smith 83
shopping 83
Te@@ 83
surprise 83
realized 83
val@@ 83
Pan@@ 83
blow 83
ative 83
material 83
require 83
proceed 83
00 82
DI@@ 82
ails 82
ins 82
ou 82
app@@ 82
ms 82
cross 82
wake 82
Lee 82
ss@@ 82
pleas@@ 82
God@@ 82
larger 82
Rom@@ 82
pan@@ 82
yer 82
language 82
kers 82
choices 82
happening 82
yellow 82
talked 82
quick 82
lemen 82
roses 81
CON@@ 81
monkey 81
bri@@ 81
colors 81
finished 81
LS 81
sky 81
heads 81
sher 81
desperate 81
sitting 81
beauty 81
Disney 81
onto 81
Which 81
Before 81
pos@@ 81
res 81
losing 81
Bar@@ 81
considering 81
wild 80
unk 80
ier 80
ops 80
service 80
birth 80
WW@@ 80
actors 80
Way 80
tab@@ 80
dec@@ 80
sn@@ 80
exciting 80
but@@ 80
divorced 80
cell 80
les@@ 80
checked 80
TER@@ 80
fear 80
Met@@ 80
zzy 80
piece 80
unique 80
content 80
majority 80
desires 80
concern 80
beli@@ 79
bro@@ 79
gotten 79
horse 79
tri@@ 79
gor@@ 79
role 79
Ab@@ 79
besides 79
reply 79
string 79
spot 79
topic 79
andy 79
behave 79
fifteen 79
ARS 78
loading 78
entertaining 78
cents 78
comm@@ 78
ENT@@ 78
Dar@@ 78
PR@@ 78
ang@@ 78
gas 78
spent 78
ical 78
Lin@@ 78
mart 78
PS 78
South 78
conf@@ 78
Jennifer 78
general 78
starting 78
gar@@ 78
Walk 78
Elvis 78
express 78
warm 78
preference 78
breath 78
allowed 78
carry 78
career 78
impress 78
skin 78
inches 78
NEW 77
music@@ 77
UM@@ 77
og@@ 77
rose 77
gh 77
Friends 77
Bill 77
00@@ 77
Anyway 77
COM 77
CL@@ 77
red@@ 77
Daniel 77
City 77
Sc@@ 77
repeat 77
harder 77
dogs 77
fer 77
lay 77
directly 77
kes 77
code 77
Run 77
Je@@ 77
constantly 77
iPod 77
sted 77
ser 77
PE 76
ically 76
too@@ 76
boat 76
cos 76
fairly 76
Floyd 76
hottest 76
GH@@ 76
Kong 76
ete 76
screen 76
ari@@ 76
ose 76
HA 76
22 76
Cu@@ 76
Wal@@ 76
Fl@@ 76
Mike 76
elling 76
earn 76
appers 76
drinking 76
ble@@ 76
IE@@ 76
whose 76
treats 76
sor@@ 76
commercial 76
stly 76
Call 76
boss 76
Da 76
World 76
calm 76
attract 76
entirely 75
off@@ 75
plain 75
ick@@ 75
roll 75
tons 75
hn@@ 75
Hil@@ 75
characters 75
tree 75
basically 75
Superman 75
SC@@ 75
tion@@ 75
fli@@ 75
cas@@ 75
Nobody 75
price 75
crying 75
ani 75
history 75
pray 75
approximately 75
patient 75
greatly 75
images 74
leg 74
Sk@@ 74
Fi@@ 74
soft 74
becoming 74
ez@@ 74
mon 74
Watch 74
buying 74
ki@@ 74
Wars 74
att@@ 74
CS@@ 74
phrase 74
babies 74
vin 74
ocks 74
ian 74
eing 74
million 74
nearly 74
planning 74
fault 74
prob@@ 73
walks 73
Dam@@ 73
board 73
han 73
ab 73
ser@@ 73
Po@@ 73
roc@@ 73
risk 73
ish 73
shi@@ 73
photo 73
bow 73
comedy 73
beyond 73
sensitive 73
Nice 73
rule 73
Bush 73
Another 73
clothing 73
Fo@@ 73
space@@ 73
walked 73
sol@@ 73
falling 73
wishes 73
Kel@@ 73
pot@@ 72
coo@@ 72
bles 72
smoking 72
keeping 72
stage 72
_ 72
Kiss 72
P.@@ 72
UL 72
NI@@ 72
23 72
Old 72
hat 72
ry@@ 72
weekend 72
itely 72
He@@ 72
animal 72
reci@@ 72
Age 72
bear 72
anno@@ 72
Internet 72
specific 72
within 72
blond 72
parts 72
informed 72
attraction 72
char@@ 71
plane 71
media 71
putting 71
,@@ 71
sea 71
Home 71
None 71
request 71
junk 71
ego 71
akin 71
bathroom 71
celebrities 71
ads 71
cake 71
ee@@ 71
SI@@ 71
enjoying 71
Mary 71
Peter 71
cow 71
gir@@ 71
superior 71
value 71
attempting 71
tickets 70
99 70
sharing 70
Com@@ 70
bby 70
ner 70
bo 70
ill@@ 70
dar@@ 70
ute 70
offense 70
10@@ 70
and@@ 70
cur@@ 70
ey@@ 70
Full 70
est@@ 70
hook 70
Lov@@ 70
floor 70
ome 70
sisters 70
lack 70
shoot 70
Thanks 70
insane 70
bedroom 70
ouse 70
list@@ 70
rate 70
Though 70
holding 70
shall 70
understanding 70
therefore 70
incorrect 70
gun 69
Club 69
Put 69
featuring 69
Ar@@ 69
Texas 69
reminds 69
mad@@ 69
exc@@ 69
Space 69
anna 69
~@@ 69
impression 69
INE 69
Spears 69
select 69
foot 69
ink@@ 69
scare 69
gain 69
ann@@ 69
Fri@@ 69
laid 69
UN 69
E-@@ 69
Obviously 69
chat@@ 69
shake 69
Mom@@ 69
Especially 69
deserves 69
account 69
rap@@ 69
Everything 69
chil@@ 69
proud 69
chase 69
features 69
acquain@@ 69
assistance 69
Dead 68
DE 68
kinds 68
zi@@ 68
tune 68
Band 68
pool 68
zing 68
ignor@@ 68
Fun@@ 68
ns 68
dish 68
Lost 68
kicked 68
pper 68
Without 68
bi 68
Pre@@ 68
med 68
minds 68
Si@@ 68
daily 68
ars 68
yesterday 68
Good@@ 68
moves 68
Blue 68
unfortunately 68
sooner 68
Other 68
regarding 68
credit 67
ket 67
Kate 67
Simpson 67
lived 67
sou@@ 67
dom 67
I.@@ 67
Sha@@ 67
Char@@ 67
pun@@ 67
private 67
social 67
yn@@ 67
Kevin 67
listened 67
trash 67
pizza 67
pair 67
major 67
bor@@ 67
aming 67
peace 67
jeans 67
necessary 67
verse 67
deeply 67
activities 67
outcome 67
Any@@ 66
loss 66
Three 66
pm 66
selection 66
tone 66
bur@@ 66
button 66
Van 66
asian 66
s-@@ 66
Loo@@ 66
ause 66
pri@@ 66
gl@@ 66
weak 66
tim@@ 66
ra 66
ls 66
typ@@ 66
soap 66
quote 66
cho@@ 66
ade 66
Phil 66
marrying 66
ette 66
fu@@ 66
Otherwise 66
task 66
tour 65
Nar@@ 65
ean 65
tre@@ 65
horror 65
bath 65
Pret@@ 65
0 65
Mari@@ 65
mag@@ 65
rite 65
dangerous 65
Ryan 65
bra@@ 65
ching 65
bus 65
wor@@ 65
To@@ 65
basketball 65
lovely 65
Mil@@ 65
friendly 65
ths 65
ran 65
earlier 65
blame 65
active 65
asm 65
statement 65
United 65
Nick 64
je@@ 64
grand@@ 64
Tup@@ 64
final 64
´@@ 64
Att@@ 64
counts 64
Carey 64
bald 64
telephone 64
illa 64
letters 64
entertainment 64
LA@@ 64
wen 64
We@@ 64
Fe@@ 64
ath@@ 64
Jerry 64
California 64
result 64
gen@@ 64
ton@@ 64
faith 64
can@@ 64
Live 64
sie 64
numbers 64
Miss 64
Cre@@ 64
events 64
possibility 64
prom@@ 64
required 64
refrain 64
way@@ 63
mix 63
sun@@ 63
'em 63
Mer@@ 63
Qu@@ 63
cast 63
augh@@ 63
El@@ 63
t-@@ 63
ew 63
ud 63
puts 63
Dir@@ 63
opposite 63
smar@@ 63
breaking 63
depending 63
Has 63
impossible 63
kin@@ 63
animals 63
screw 63
hiding 63
proc@@ 63
prove 63
pol@@ 63
steal 63
opinions 63
oral 63
happiness 63
kar@@ 62
Batman 62
va 62
ong@@ 62
Nir@@ 62
More 62
Some@@ 62
rules 62
Boy@@ 62
actual 62
tight 62
ack@@ 62
differently 62
cool@@ 62
recent 62
anc@@ 62
whoever 62
Heart 62
lip@@ 62
3.@@ 62
ira 62
ae 62
Ice 62
Ser@@ 62
comment 62
members 62
aky 62
sum 62
Hu@@ 62
hated 62
closer 62
round 62
trick 62
Str@@ 62
sin 62
double 62
image 62
ving 62
underwear 62
loyal 62
nicely 62
communicate 62
MS 61
70 61
ents 61
tur@@ 61
sters 61
ily 61
jud@@ 61
Pl@@ 61
II 61
toilet 61
60 61
mall 61
seasons 61
cli@@ 61
queen 61
NA 61
uto 61
committed 61
cook 61
Things 61
SS@@ 61
cared 61
treated 61
fails 61
remove 61
honesty 61
improve 61
rooms 61
interests 61
seeking 61
que 60
Boo@@ 60
Mountain 60
res@@ 60
ants 60
iTunes 60
X-@@ 60
Steve 60
Jim 60
random 60
complicated 60
breast 60
trip 60
revenge 60
amed 60
psych@@ 60
acy 60
til 60
gal 60
table 60
Something 60
flower 60
Anything 60
li 60
balls 60
innocent 60
racist 60
lah 60
Very 60
across 60
paying 60
Mom 60
shallow 60
mass@@ 60
sit@@ 59
software 59
rist@@ 59
lou@@ 59
yr 59
may@@ 59
12@@ 59
CR@@ 59
believed 59
gang@@ 59
ail@@ 59
eBay 59
cal@@ 59
icked 59
ef@@ 59
wall 59
ress 59
best@@ 59
gging 59
bro 59
ality 59
graphic 59
files 59
od@@ 59
TE 59
nervous 59
Gun@@ 59
wom@@ 59
teach 59
unt 59
experiences 59
Pitt 59
35 59
dri@@ 59
replied 59
mistakes 59
tically 59
hoping 59
travel 59
discovered 59
hints 59
dependent 59
occur 59
empt 59
assist 59
partners 59
unaware 59
sha 58
war 58
Dr@@ 58
she@@ 58
Nicole 58
yr@@ 58
sts 58
sive 58
ans@@ 58
bag 58
Led 58
anytime 58
Dum@@ 58
terms 58
release 58
ger@@ 58
mixed 58
mes 58
About 58
Zep@@ 58
ect 58
show@@ 58
School 58
surely 58
wed 58
cat@@ 58
began 58
vi 58
stores 58
cha 58
olls 58
28 58
inc@@ 58
aks 58
satisfied 58
slowly 58
irrit@@ 58
Bil@@ 58
lied 58
Consider 58
suggestions 57
pa@@ 57
sugar 57
ini 57
Hal@@ 57
waited 57
sal@@ 57
jo 57
holl@@ 57
Pi@@ 57
sle@@ 57
ony 57
yp@@ 57
cash 57
WS 57
IB@@ 57
DR@@ 57
guilty 57
text 57
fingers 57
Fire 57
smoke 57
threw 57
oa 57
posted 57
rep@@ 57
wr@@ 57
web@@ 57
ety 57
faster 57
connection 57
Mine 57
wet 57
performing 57
ret@@ 57
abuse 57
purchased 57
Besides 57
protection 57
approve 57
desirable 57
Kids 56
ady 56
nia 56
NT@@ 56
states 56
sion 56
a.@@ 56
cards 56
Crazy 56
SM@@ 56
ino 56
182 56
solo 56
si 56
dollar 56
inger 56
Sim@@ 56
pel@@ 56
Madonna 56
ask@@ 56
mamm@@ 56
geous 56
leaves 56
Im@@ 56
hint 56
wind 56
stands 56
relate 56
jack@@ 56
cried 56
ove 56
watches 56
stronger 56
dig 56
charge 56
pick@@ 56
instant 56
prepared 56
thirteen 56
hurting 56
atively 56
acquire 56
Cool 55
ti 55
Gre@@ 55
office 55
hip-hop 55
alcohol 55
generally 55
rated 55
QU@@ 55
ucky 55
master 55
S.@@ 55
truck 55
Read 55
Album 55
solve 55
fresh 55
sides 55
Moon 55
confusing 55
bet@@ 55
Everybody 55
pit@@ 55
usual 55
qui@@ 55
musicians 55
swear 55
bun@@ 55
beats 55
ingly 55
LA 55
Sli@@ 55
3rd 55
Per@@ 55
ned 55
Las 55
scream 55
lock 55
Sweet 55
Street 55
Ge@@ 55
Keith 55
arms 55
ground 55
wine 55
aters 55
26 55
pressure 55
perfectly 55
oun@@ 55
wears 55
eks 55
afterwards 55
gender 55
unfortunate 55
ning 55
intelligence 55
distance 55
inappropriate 55
pornography 55
ered 54
dick 54
ty@@ 54
Ci@@ 54
aked 54
Therefore 54
notes 54
piano 54
True 54
Under@@ 54
Prince 54
imp@@ 54
day@@ 54
stranger 54
Want 54
AP 54
lately 54
Brothers 54
them@@ 54
press 54
Pro@@ 54
French 54
stations 54
IP@@ 54
ams 54
Hollywood 54
edy 54
prison 54
non-@@ 54
slap 54
south 54
Exc@@ 54
cow@@ 54
results 54
Indian 54
Hill 54
ually 54
staying 54
disappointed 54
proper 54
responsible 54
itus 54
Over 53
chy 53
Four 53
lin 53
devil 53
brains 53
lee 53
Bruce 53
ridiculous 53
incredible 53
overly 53
hero 53
Ever 53
one@@ 53
simp@@ 53
inst@@ 53
variety 53
Ke@@ 53
seat 53
lower 53
mil@@ 53
ale 53
regg@@ 53
Oprah 53
accident 53
sake 53
Chemical 53
build 53
Cra@@ 53
growing 53
sur@@ 53
tly 53
bird 53
oms 53
bang 53
purpose 53
Valentine 53
gy 53
bil@@ 53
antly 53
disc 53
dly 53
States 53
allows 53
mail@@ 53
exists 53
esteem 53
process 53
slightly 53
effective 53
convince 53
determine 53
picking 52
proof 52
downloaded 52
sale 52
ded 52
eli@@ 52
yah 52
afford 52
mer@@ 52
rings 52
7th 52
ye 52
nor@@ 52
pack 52
son@@ 52
egg 52
drums 52
twelve 52
Am@@ 52
Wed@@ 52
ste@@ 52
meat 52
Grace 52
Scor@@ 52
bite 52
ens@@ 52
dying 52
leg@@ 52
ering 52
smo@@ 52
A.@@ 52
latest 52
ts@@ 52
Hel@@ 52
ites 52
compare 52
oll 52
Ad@@ 52
Mr 52
CI@@ 52
wee@@ 52
od 52
Jay 52
Bas@@ 52
sun 52
suit 52
Spanish 52
believes 52
exact 52
ows 52
uck@@ 52
unusual 52
staring 52
occasion 52
rem@@ 51
ay-@@ 51
alternative 51
Angel 51
mer 51
temp@@ 51
lion 51
DA@@ 51
Adam 51
ough 51
jack 51
rumor 51
Col@@ 51
bars 51
ft 51
ww@@ 51
March 51
ement 51
what@@ 51
mas@@ 51
favour@@ 51
sa 51
ticket 51
esome 51
Av@@ 51
clearly 51
Kid 51
equal 51
sounded 51
thick 51
lovers 51
ki 51
eful 51
mental 51
teacher 51
regular 51
Sunday 51
mak@@ 51
cour@@ 51
among 51
roman@@ 51
itself 51
protect 51
mast@@ 51
Pos@@ 51
stomach 51
uncomfortable 51
multiple 51
companion 51
No@@ 50
Japanese 50
remake 50
Bobby 50
drag 50
ever@@ 50
sen@@ 50
net@@ 50
BR@@ 50
ov@@ 50
ston 50
fer@@ 50
killing 50
ung 50
LD@@ 50
library 50
ko@@ 50
gro@@ 50
Wonder 50
disc@@ 50
q@@ 50
dit 50
rer@@ 50
laws 50
mur@@ 50
planet 50
Rose 50
Anyone 50
twins 50
27 50
spi@@ 50
restaurant 50
shing 50
ple@@ 50
ably 50
strongly 50
elled 50
az 50
ench 50
be.com 50
fashion 50
ideal 50
encourage 50
stayed 50
swe@@ 50
provided 50
depressed 50
incredibly 50
hundred 50
seemed 49
sending 49
thetic 49
oli@@ 49
Tor@@ 49
udes 49
oh@@ 49
height 49
seconds 49
oil 49
head@@ 49
commit 49
cele@@ 49
Em@@ 49
umb@@ 49
IL 49
ani@@ 49
ano 49
2.@@ 49
strip 49
angel@@ 49
Sm@@ 49
Having 49
flat 49
Hopefully 49
B.@@ 49
comics 49
hael 49
welcome 49
sat 49
Eddie 49
Dream 49
fantasy 49
respectful 49
heaven 49
eless 49
dia 49
Heaven 49
Elliot 49
Sam 49
circumstances 49
memory 49
source 49
max 49
plastic 49
wil@@ 49
tips 49
learning 49
parent 49
Friday 49
Kaz@@ 49
causes 49
mutual 49
uncertain 49
Ac@@ 48
La 48
wire 48
olly 48
cartoons 48
elle 48
brilliant 48
sam@@ 48
emin@@ 48
movi@@ 48
category 48
fav@@ 48
eps 48
fill 48
Sur@@ 48
Play 48
Name 48
Simon 48
Dan 48
DC 48
dare 48
changes 48
mistaken 48
recorded 48
astr@@ 48
magazines 48
shape 48
bucks 48
sees 48
-up 48
vie 48
necessarily 48
tries 48
phones 48
ful@@ 48
Bec@@ 48
Sno@@ 48
part@@ 48
Act 48
bul@@ 48
hol@@ 48
thi@@ 48
ups 48
communication 48
Pri@@ 48
anim@@ 48
Iron 48
ations 48
sixteen 48
weather 48
ches 48
owns 48
fail 48
comments 48
Jason 48
court 48
dumped 48
fancy 48
touching 48
Asian 48
grab 48
education 48
recognize 48
Clark@@ 48
leads 48
Regardless 48
qualities 48
viewed 48
Lisa 47
nu@@ 47
PS@@ 47
Val@@ 47
Katie 47
players 47
math 47
lime 47
stories 47
45 47
musician 47
useful 47
refer 47
ili@@ 47
slept 47
research 47
Metal 47
messages 47
Money 47
ff@@ 47
attempted 47
Head 47
crack 47
jobs 47
Aqu@@ 47
It@@ 47
aqu@@ 47
amp@@ 47
bal@@ 47
tat@@ 47
couples 47
split 47
cars 47
Dance 47
toys 47
Eyes 47
hood 47
sne@@ 47
remind 47
asting 47
system 47
winner 47
ull 47
hair@@ 47
ax 47
s/@@ 47
setting 47
scale 47
thirty 47
Saturday 47
dro@@ 47
Easy 47
alize 47
ored 47
prefer@@ 47
apply 47
painful 47
counseling 47
intim@@ 47
¨@@ 47
tech@@ 46
DV@@ 46
Cr@@ 46
hel@@ 46
pupp@@ 46
+@@ 46
duck 46
tatt@@ 46
guit@@ 46
cowboy 46
Artist 46
prior 46
avid 46
opera 46
cle@@ 46
thr@@ 46
Gil@@ 46
anish 46
1-@@ 46
elephant 46
costs 46
thers 46
aid 46
aving 46
ghost 46
remix 46
orn 46
thru 46
Mor@@ 46
USA 46
r. 46
dep@@ 46
Mark 46
isc@@ 46
weed 46
ide 46
Brian 46
closet 46
share@@ 46
religion 46
yl@@ 46
modern 46
grew 46
Know 46
uk 46
asleep 46
plot 46
begins 46
FL@@ 46
hurry 46
Ru@@ 46
1980 46
ousy 46
genuine 46
stress 46
dressed 46
Gw@@ 46
Sil@@ 46
Second 46
polite 46
Certainly 46
wealthy 46
corn 45
W.@@ 45
apping 45
nuts 45
oos 45
contest 45
island 45
Tri@@ 45
inner 45
passion 45
football 45
intended 45
eg@@ 45
d-@@ 45
ket@@ 45
exic@@ 45
not@@ 45
heal 45
Cha@@ 45
Jon 45
eggs 45
uss 45
dor@@ 45
Eric 45
nerves 45
according 45
sof@@ 45
ori@@ 45
Neither 45
min 45
bians 45
barely 45
Martin 45
professional 45
mirror 45
stu@@ 45
oke 45
tracks 45
machine 45
Dark 45
Ju@@ 45
toy 45
brand 45
Sean 45
understood 45
Sex@@ 45
glass 45
Wor@@ 45
magic 45
emp@@ 45
Dis@@ 45
fits 45
ances 45
nec@@ 45
heart@@ 45
intend 45
affec@@ 45
toxic@@ 45
Night 44
yan 44
Cas@@ 44
laughed 44
drives 44
goals 44
pping 44
etly 44
train 44
director 44
included 44
ip@@ 44
tw 44
Country 44
Dog 44
Chicago 44
Tommy 44
cruise 44
clip 44
hn 44
cable 44
Bi@@ 44
Lou@@ 44
theater 44
standing 44
rhythm 44
ping 44
sli@@ 44
ena 44
6th 44
bies 44
Pep@@ 44
tom@@ 44
wondered 44
Death 44
cap@@ 44
introduce 44
winning 44
cru@@ 44
label 44
higher 44
photos 44
arm 44
ulous 44
Again 44
entitled 44
are@@ 44
records 44
Fre@@ 44
CDs 44
Charlie 44
Usually 44
parties 44
claims 44
typically 44
Mother 44
showed 44
Days 44
letting 44
oud 44
mo 44
smiling 44
mentally 44
challenge 44
reaction 44
Instead 44
complain 44
capable 44
Fir@@ 44
compact 44
despite 44
R.@@ 43
seventeen 43
Dad 43
sincere 43
GR@@ 43
drummer 43
Hor@@ 43
flat@@ 43
'I 43
k-@@ 43
Super@@ 43
hung 43
hooked 43
Pearl 43
5.@@ 43
screaming 43
tunes 43
za 43
ANCE 43
driver 43
audio 43
.org 43
aul 43
ABC 43
Goo@@ 43
arius 43
lip 43
cup 43
hee 43
ion 43
someday 43
experiencing 43
Cru@@ 43
ump@@ 43
pic@@ 43
ology 43
360 43
aller 43
maid 43
rix 43
uz 43
vs 43
atin 43
wood@@ 43
feed 43
belong 43
ine@@ 43
pounds 43
Pr@@ 43
ten@@ 43
ACT 43
ware 43
jumped 43
At@@ 43
Patrick 43
homework 43
mid 43
situations 43
aside 43
hardly 43
clo@@ 43
emotionally 43
connect 43
particularly 43
rain 43
harm 43
doms 43
accomplish 43
genu@@ 43
Game 42
groups 42
forth 42
come@@ 42
tish 42
vacation 42
G-@@ 42
opening 42
lessons 42
Ray 42
ban@@ 42
ny@@ 42
amp 42
escape 42
rhy@@ 42
inks 42
guitarist 42
mile 42
garbage 42
Spe@@ 42
swim 42
commercials 42
thear@@ 42
green@@ 42
recording 42
ously 42
Bur@@ 42
anks 42
PA@@ 42
30@@ 42
ould 42
Mu@@ 42
4th 42
Jam 42
Ver@@ 42
ef 42
lik@@ 42
bright 42
includes 42
poin@@ 42
tain 42
class@@ 42
god@@ 42
Fr@@ 42
ass@@ 42
ation@@ 42
camera 42
rarely 42
Five 42
tle 42
September 42
rel 42
teenager 42
Al 42
Sam@@ 42
ce@@ 42
cri@@ 42
Turn 42
Sat@@ 42
assuming 42
Nick@@ 42
Shak@@ 42
scar@@ 42
UK 42
milk 42
shoe 42
flow 42
settle 42
Mis@@ 42
1990 42
aspect 42
eighteen 42
continues 42
DA 41
ader 41
Stone 41
Bun@@ 41
aine 41
sar@@ 41
Hillary 41
tastes 41
ock 41
Ph@@ 41
our@@ 41
UD@@ 41
tick 41
} 41
fourth 41
ual 41
vo@@ 41
aged 41
int 41
hill 41
paint 41
pa 41
Season 41
west 41
pocket 41
neighbor 41
bang@@ 41
lyr@@ 41
hun@@ 41
Por@@ 41
June 41
Brother 41
speed 41
brought 41
Pu@@ 41
mus@@ 41
ters 41
def@@ 41
mi 41
dif@@ 41
Going 41
Jimmy 41
dose 41
rape 41
goodbye 41
Par@@ 41
nd 41
Fav@@ 41
ands 41
awkward 41
feminine 41
Ti@@ 41
uring 41
mainly 41
pets 41
Gi@@ 41
29 41
skills 41
rab@@ 41
pec@@ 41
Side 41
checking 41
Robert 41
jeal@@ 41
flo@@ 41
building 41
false 41
Rel@@ 41
bling 41
ador@@ 41
definition 41
ris@@ 41
deny 41
July 41
try@@ 41
add@@ 41
mp 41
ved 41
meal 41
strangers 41
husbands 41
Down@@ 41
advantage 41
viewing 41
ases 41
returned 41
occasionally 41
potential 41
admire 41
pursuing 41
courage 41
inely 41
utilize 41
African 41
ept 40
icky 40
ail 40
scr@@ 40
A-@@ 40
HER@@ 40
Sarah 40
cheaper 40
extent 40
onic 40
Mat@@ 40
fs 40
Our 40
grass 40
tit@@ 40
ig@@ 40
ho 40
breaks 40
Still 40
2005 40
drug 40
happily 40
bad@@ 40
oling 40
Anim@@ 40
ships 40
ited 40
ous@@ 40
92 40
cats 40
ather 40
Vinc@@ 40
Hard 40
stone 40
udge 40
ison 40
hin@@ 40
uts 40
1/2 40
dian 40
Ari@@ 40
tel@@ 40
OL@@ 40
pe 40
drinks 40
thor@@ 40
purple 40
zy 40
violent 40
Were 40
pon@@ 40
produce 40
base 40
starring 40
Mai@@ 40
shed 40
noise 40
failed 40
cul@@ 40
SS 40
tube 40
sold 40
couch 40
ettes 40
diamond 40
sweat 40
exercise 40
Hum@@ 40
Tre@@ 40
permission 40
perspective 40
propose 40
describe 40
solution 40
sibly 40
consequences 40
ub@@ 39
36 39
ko 39
pin@@ 39
acc@@ 39
mothers 39
wolf 39
properly 39
Ash@@ 39
Ashley 39
BS 39
Dear 39
ath 39
with@@ 39
iest 39
miles 39
Gar@@ 39
ville 39
Episode 39
teenagers 39
stole 39
Des@@ 39
bones 39
length 39
Rolling 39
network 39
oll@@ 39
draw 39
Tal@@ 39
ET@@ 39
compatible 39
kins 39
appeal 39
blu@@ 39
air@@ 39
thering 39
Orlando 39
Blo@@ 39
eva 39
Guit@@ 39
verted 39
programs 39
men@@ 39
amy 39
MC 39
Jesse 39
avi@@ 39
ard@@ 39
Cash 39
ash 39
Pur@@ 39
isco 39
fired 39
E.@@ 39
Road 39
agent 39
pie 39
witch 39
ound 39
Radio 39
Type 39
ag 39
airs 39
license 39
butt@@ 39
changing 39
ial 39
stup@@ 39
keys 39
minor 39
pro 39
hy@@ 39
confront 39
accurate 39
rest@@ 39
attached 39
belief 39
zed 39
nin@@ 39
int@@ 39
shoulders 39
success 39
healthy 39
ppers 39
utely 39
rain@@ 39
suggestion 39
sentence 39
plans 39
soci@@ 39
Due 39
difficulty 39
iss 38
layer 38
ring@@ 38
fir@@ 38
enc@@ 38
eh 38
Bir@@ 38
visiting 38
ruined 38
wasted 38
bomb 38
fro@@ 38
beg@@ 38
sad@@ 38
Long 38
Indeed 38
sim@@ 38
Gay 38
Real 38
Getting 38
fe 38
aster 38
manga 38
ffy 38
ada 38
sing@@ 38
gym 38
dge 38
thful 38
ames 38
receiving 38
enna 38
80s 38
gol@@ 38
raise 38
Summer 38
steps 38
Mal@@ 38
murder 38
Fla@@ 38
twin 38
breakfast 38
profile 38
ank@@ 38
angel 38
Years 38
sil@@ 38
prof@@ 38
actresses 38
ere 38
Dem@@ 38
Moore 38
ven@@ 38
Tony 38
security 38
canc@@ 38
genres 38
lap 38
direct 38
voices 38
pet 38
rejected 38
rel@@ 38
brave 38
equally 38
fic@@ 38
ming 38
smiles 38
vag@@ 38
brush 38
turning 38
Katherine 38
cher@@ 38
lasts 38
Earth 38
dresses 38
ongs 38
bless 38
cheek 38
pays 38
instance 38
contains 38
hetero@@ 38
riage 38
participate 38
answ@@ 37
anga 37
ems 37
saved 37
bru@@ 37
falls 37
Lopez 37
R. 37
Roll 37
Sle@@ 37
amm@@ 37
jam@@ 37
Out@@ 37
GS 37
comic 37
tender 37
culture 37
ir 37
mark 37
belly 37
Fred 37
influence 37
veg@@ 37
product 37
Jack@@ 37
Stones 37
15@@ 37
Kenny 37
ores 37
empty 37
enn@@ 37
lat@@ 37
ares 37
Rid@@ 37
q 37
Hur@@ 37
Her@@ 37
Pop 37
tip 37
childhood 37
attack 37
atly 37
lam@@ 37
flies 37
vy 37
folks 37
eds 37
hob@@ 37
advance 37
ried 37
rubber 37
dl@@ 37
ywood 37
brings 37
coc@@ 37
cease 37
impressed 37
dancer 37
Wayne 37
bodies 37
ocean 37
wit@@ 37
hospital 37
Los 37
faces 37
bank 37
method 37
direction 37
access 37
Chil@@ 37
kind@@ 37
responsibility 37
reference 37
inj@@ 37
lifetime 37
adults 37
India 37
ulations 37
attended 37
standards 37
priority 37
sufficient 37
prefers 37
caused 37
unhappy 37
possession 37
i.@@ 36
ich@@ 36
erman 36
spring 36
Back@@ 36
ancing 36
headed 36
corner 36
Finally 36
drum 36
Don 36
Williams 36
pose 36
Jamie 36
shoulder 36
drawn 36
hitting 36
bert 36
Us 36
8th 36
Ras@@ 36
mysterious 36
spo@@ 36
ero@@ 36
co-@@ 36
pure 36
Jud@@ 36
bowl 36
WITHOUT 36
Clo@@ 36
van 36
tow@@ 36
una 36
den@@ 36
Hoo@@ 36
gently 36
expecting 36
tering 36
selves 36
Gone 36
wat@@ 36
Kar@@ 36
ken 36
rai@@ 36
stops 36
ene 36
teens 36
rela@@ 36
bush 36
invited 36
Halloween 36
ingo 36
ghts 36
hear@@ 36
arrested 36
searched 36
status 36
Pick@@ 36
official 36
ards 36
lic@@ 36
smaller 36
tea 36
fore@@ 36
porno@@ 36
Kor@@ 36
sion@@ 36
cy@@ 36
abusive 36
Gro@@ 36
let@@ 36
Stef@@ 36
trunk 36
pers 36
runs 36
scenes 36
sies 36
emotion 36
compli@@ 36
socks 36
pity 36
fellow 36
goal 36
Coming 36
uated 36
desired 36
Lindsay 36
worth@@ 36
cases 36
separate 36
dish@@ 36
oused 36
beneficial 36
concerning 36
ayne 35
health 35
clues 35
vert 35
Rocky 35
crowd 35
ist 35
cal 35
iller 35
ark 35
Magic 35
nude 35
200 35
Luke 35
N.@@ 35
bat 35
hardcore 35
So@@ 35
Cole 35
fla@@ 35
makeup 35
niece 35
jumping 35
Mad@@ 35
flying 35
pulled 35
Comedy 35
2004 35
pen 35
classes 35
religious 35
tends 35
wards 35
anny 35
Ques@@ 35
aha 35
o-@@ 35
bas@@ 35
ys@@ 35
Dog@@ 35
dolls 35
poorly 35
brow@@ 35
closed 35
jumps 35
Green@@ 35
embar@@ 35
Soul 35
iously 35
returns 35
Spar@@ 35
award 35
suddenly 35
versions 35
basic 35
Dreams 35
doll 35
mol@@ 35
hearts 35
fa@@ 35
tears 35
Chinese 35
bill 35
aps 35
chin 35
Bli@@ 35
dealing 35
Ben 35
ate@@ 35
accent 35
feature 35
ease 35
neg@@ 35
aggressive 35
youth 35
habit 35
rough 35
filled 35
unlike 35
arrive 35
pleased 35
sincerely 35
proposed 35
Despite 35
Titanic 34
gang 34
num@@ 34
Gang@@ 34
chie 34
oda 34
prostitute 34
20@@ 34
stic@@ 34
ICA@@ 34
tex@@ 34
blast 34
ggy 34
bell 34
there@@ 34
plin 34
lo 34
Holy 34
duc@@ 34
ender 34
laun@@ 34
Frank 34
kicks 34
plug 34
saving 34
rock@@ 34
aired 34
itz 34
trailer 34
sis 34
song@@ 34
eer 34
report 34
violence 34
asi@@ 34
wars 34
heels 34
pul@@ 34
succeed 34
disco 34
Code 34
Pete 34
uns 34
Hom@@ 34
McCartney 34
Left 34
500 34
Star@@ 34
grown 34
bottle 34
fruit 34
Fox 34
cro@@ 34
Rob 34
score 34
than@@ 34
sequel 34
silent 34
hesitate 34
ca@@ 34
newer 34
surgery 34
boots 34
oney 34
24@@ 34
ped@@ 34
enting 34
perc@@ 34
argue 34
Ap@@ 34
well-@@ 34
grammar 34
expected 34
resemble 34
adul@@ 34
duce 34
react 34
year-old 34
discussing 34
function 34
regard 34
SL@@ 33
fold 33
Roc@@ 33
mouse 33
osc@@ 33
gold 33
remains 33
pigs 33
strings 33
zo@@ 33
dic@@ 33
ita 33
quest 33
Tim 33
Kim 33
insult 33
master@@ 33
pig 33
hotel 33
gate 33
twist 33
Ali@@ 33
uncle 33
vide@@ 33
flash 33
scor@@ 33
Mot@@ 33
closing 33
Thing 33
persons 33
Gary 33
dances 33
Af@@ 33
rumors 33
Ther@@ 33
Net@@ 33
new@@ 33
Eve 33
Such 33
Chicken 33
eyed 33
jazz 33
sets 33
range 33
Amazon 33
virus 33
Cor@@ 33
ise 33
ght@@ 33
selling 33
Gibson 33
windows 33
fo 33
Toby 33
mountain 33
tale 33
aylor 33
aj@@ 33
heat 33
oned 33
arrog@@ 33
zero 33
freedom 33
Player 33
Beauty 33
placed 33
atic 33
Beach 33
punch 33
responded 33
penc@@ 33
bey 33
iness 33
his@@ 33
hoe 33
limit 33
ppy 33
anniversary 33
aining 33
inclined 33
wore 33
eton 33
naturally 33
assure 33
presence 33
produced 33
inexpensive 33
guarantee 33
existence 33
benefit 33
choosing 33
occurs 33
occurred 33
holiday 32
re-@@ 32
UF@@ 32
Joey 32
block 32
Free 32
finale 32
anne 32
Rain 32
Cow@@ 32
grat@@ 32
Sab@@ 32
ona 32
dozen 32
lord 32
Ghost 32
classical 32
San 32
sno@@ 32
thon 32
anic 32
appeared 32
host 32
elsewhere 32
emo@@ 32
tab 32
dem@@ 32
Ed 32
Bang 32
free@@ 32
viruses 32
clever 32
fil@@ 32
Johnson 32
ples 32
alls 32
sey 32
NBC 32
guide 32
Dick 32
D.@@ 32
forgotten 32
box@@ 32
Hend@@ 32
spread 32
spy 32
blew 32
Ko@@ 32
iny 32
script 32
bowling 32
Line 32
long@@ 32
Order 32
apples 32
toward 32
study 32
.com@@ 32
ker@@ 32
Ob@@ 32
peoples 32
Sw@@ 32
Lucy 32
wer@@ 32
shirts 32
Barry 32
Dest@@ 32
legally 32
alien 32
Rem@@ 32
mou@@ 32
4.@@ 32
featured 32
gut 32
ja 32
Deal 32
Until 32
tless 32
bull 32
emi@@ 32
craw@@ 32
fame 32
patience 32
trusted 32
esy 32
theirs 32
tro@@ 32
typical 32
d'@@ 32
Hicks 32
identity 32
But@@ 32
pole 32
Number 32
serve 32
underneath 32
comfort 32
fourteen 32
added 32
marijuana 32
sticks 32
maturity 32
Beg@@ 32
observe 32
accompany 32
additional 32
ty-@@ 32
remaining 31
Ol@@ 31
chemical 31
Or@@ 31
une 31
woo@@ 31
studio 31
taught 31
van@@ 31
infeld 31
cops 31
H.@@ 31
owed 31
loc@@ 31
rie 31
Richard 31
cousins 31
vel@@ 31
33 31
humans 31
itch 31
66 31
baseball 31
toes 31
core 31
bi-@@ 31
Ben@@ 31
shown 31
vin@@ 31
C.@@ 31
interview 31
thu@@ 31
Away 31
ember 31
shak@@ 31
newspaper 31
speech 31
leader 31
slip@@ 31
fee 31
alike 31
que@@ 31
Win@@ 31
theaters 31
vol@@ 31
BB@@ 31
target 31
instrument 31
teenage 31
dry 31
Power 31
ffs 31
decides 31
lean 31
obs@@ 31
Peace 31
Hop 31
Leo 31
forced 31
iting 31
42 31
chorus 31
Paula 31
atch 31
ume 31
claim 31
mut@@ 31
Mind 31
shorter 31
gn 31
shoots 31
fishing 31
minded 31
bothered 31
Josh 31
differ@@ 31
awn 31
Haw@@ 31
non 31
gossip 31
carefully 31
and/or 31
embarrassed 31
oop 31
argument 31
bags 31
INT 31
frightened 31
accepted 31
ize 31
competition 31
lacking 31
imm@@ 31
Vir@@ 31
inate 31
jewelry 31
charming 31
impressive 31
overcome 31
Whether 31
maintain 31
¨ 31
crew 30
een 30
killer 30
Sugar 30
abs 30
Windows 30
Gen@@ 30
BA@@ 30
cop@@ 30
Story 30
tak@@ 30
rise 30
co 30
Holmes 30
Mel@@ 30
budget 30
Phantom 30
HS 30
prise 30
Mexican 30
outs 30
Off 30
Plan 30
FR@@ 30
onna 30
ook 30
edge 30
dog@@ 30
engaging 30
Smo@@ 30
bow@@ 30
switch 30
guns 30
crime 30
figured 30
CT 30
Carrie 30
bugs 30
mith 30
Jun@@ 30
ron 30
Scar@@ 30
Randy 30
enter@@ 30
disease 30
ford 30
woke 30
toe 30
inch 30
Romeo 30
dos 30
tt@@ 30
London 30
identify 30
pier@@ 30
wings 30
inn@@ 30
thy 30
agre@@ 30
nick 30
sixth 30
rub@@ 30
Ly@@ 30
originally 30
accidentally 30
etto 30
butter 30
dy@@ 30
Had 30
various 30
tricks 30
pes 30
riding 30
tles 30
unlikely 30
MP 30
society 30
reads 30
refuse 30
robot 30
Australia 30
camp 30
grandmother 30
North 30
cen@@ 30
easi@@ 30
stays 30
mid@@ 30
closest 30
cruel 30
iter 30
extreme 30
bills 30
benefits 30
ises 30
eleven 30
follows 30
pride 30
pal 30
followed 30
associate 30
combination 30
Whenever 30
miserable 30
satisfy 30
decisions 30
Depending 30
Rich 29
Lo 29
thousand 29
san@@ 29
eman 29
whis@@ 29
peer 29
oe 29
Ladies 29
Super 29
PM 29
Fan@@ 29
shar@@ 29
removed 29
mans 29
Mexico 29
apparently 29
relation 29
chin@@ 29
acti@@ 29
crash 29
jol@@ 29
package 29
sni@@ 29
aka 29
plants 29
cancer 29
Miami 29
65 29
built 29
pound 29
tra 29
Har@@ 29
eves 29
ussi@@ 29
affect 29
mary 29
Frank@@ 29
Gir@@ 29
bean 29
vor 29
ason 29
5th 29
hit@@ 29
sty 29
Aw@@ 29
sand 29
lifestyle 29
achieve 29
fiction 29
oni@@ 29
poem 29
work@@ 29
burger 29
reasonable 29
cheer@@ 29
eats 29
Gem@@ 29
worker 29
fab@@ 29
Kurt 29
demo 29
nights 29
con 29
mel@@ 29
1000 29
onds 29
effect 29
Fem@@ 29
opposed 29
anie 29
ham@@ 29
lawyer 29
one-@@ 29
Barney 29
smooth 29
Bra@@ 29
Urban 29
England 29
print 29
colored 29
Master 29
tones 29
Saw@@ 29
worrying 29
ales 29
Grand@@ 29
Angeles 29
Hills 29
prom 29
gum 29
mates 29
educated 29
responds 29
yelled 29
greater 29
gins 29
arrived 29
Mess@@ 29
param@@ 29
expert 29
consider@@ 29
consideration 29
indeed 29
ologies 29
preferred 29
run@@ 28
cleaning 28
bac@@ 28
ape 28
Pow@@ 28
watch@@ 28
Year 28
channels 28
Cat@@ 28
stop@@ 28
Oh@@ 28
offensive 28
Ai 28
Ball 28
concerts 28
Captain 28
Joel 28
Wall 28
anda 28
ultim@@ 28
USED 28
offended 28
yu@@ 28
Mur@@ 28
Bon@@ 28
syn@@ 28
nickname 28
ala 28
introduced 28
DVDs 28
Red@@ 28
now@@ 28
Bear@@ 28
Spr@@ 28
Children 28
speaks 28
strike 28
lot@@ 28
ure@@ 28
34 28
b-@@ 28
break@@ 28
FM 28
effects 28
gos 28
laughter 28
Place 28
mari@@ 28
Apple 28
match@@ 28
Yankee 28
rom@@ 28
metall@@ 28
Ram@@ 28
Houston 28
tney 28
hammer 28
enny 28
lon@@ 28
fairy 28
jun@@ 28
J.@@ 28
pap@@ 28
house@@ 28
boo 28
mobile 28
{ 28
io 28
fed 28
xing 28
Every@@ 28
paste 28
Today 28
memories 28
somehow 28
Lor@@ 28
atre 28
juice 28
Save 28
blog 28
hopes 28
rare 28
ug@@ 28
far@@ 28
Angels 28
ander 28
Min@@ 28
frightening 28
ide@@ 28
conver@@ 28
rolling 28
unlimited 28
bee 28
squir@@ 28
differences 28
Twi@@ 28
Sun@@ 28
Top 28
zer 28
fixed 28
fortune 28
ustin 28
sweet@@ 28
realistic 28
inv@@ 28
delicious 28
fur@@ 28
foreign 28
Law 28
acted 28
moments 28
gods 28
attr@@ 28
50@@ 28
System 28
independent 28
fifty 28
secretly 28
surprising 28
resist 28
98 28
sav@@ 28
fifth 28
fate 28
vibr@@ 28
areas 28
British 28
outfit 28
year@@ 28
complim@@ 28
confirm 28
contract 28
reject 28
causing 28
intention 28
cautious 28
breakup 28
gentle 28
positions 28
agreement 28
Contin@@ 28
brain@@ 27
agreed 27
good-@@ 27
alling 27
gas@@ 27
Sir 27
bing 27
stle 27
credits 27
menu 27
nut@@ 27
ether 27
Tucker 27
dirt 27
spon@@ 27
:00 27
gun@@ 27
nock 27
Ak@@ 27
Lady 27
stealing 27
Mad 27
31 27
newest 27
ing-@@ 27
snow 27
Py@@ 27
ager 27
St. 27
Thomas 27
tub 27
gn@@ 27
5-@@ 27
shops 27
dict 27
L.@@ 27
dest 27
Julia 27
All@@ 27
Rad@@ 27
ough@@ 27
IA 27
abe 27
lake 27
key@@ 27
birds 27
hangs 27
replace 27
bury 27
MA 27
stones 27
Night@@ 27
controlling 27
hal@@ 27
powerful 27
thank@@ 27
bod@@ 27
Ten 27
Box 27
tis 27
Alabama 27
Bird 27
Jane 27
ind@@ 27
ICS 27
worlds 27
intense 27
pages 27
ins@@ 27
reputation 27
3-@@ 27
advent@@ 27
cist 27
pean@@ 27
responses 27
Cold 27
haired 27
WWE 27
vision 27
princess 27
Aer@@ 27
remembered 27
tes@@ 27
chill 27
alia 27
sions 27
hungry 27
Hang 27
high@@ 27
7-@@ 27
deeper 27
yu 27
urge 27
kit@@ 27
dramatic 27
eigh@@ 27
wash 27
Father 27
post@@ 27
Bell 27
cooking 27
non@@ 27
starred 27
repeatedly 27
eable 27
motion 27
visited 27
Altern@@ 27
dev@@ 27
evidence 27
Yet 27
room@@ 27
percent 27
appreciated 27
intimid@@ 27
Puerto 27
spoke 27
sexuality 27
nurse 27
ital 27
object 27
tery 27
basis 27
misses 27
reveal 27
consume 27
vehicle 27
ensure 27
bat@@ 26
Dur@@ 26
Fort 26
enge 26
clips 26
detective 26
shell 26
Nine 26
06 26
ism 26
generation 26
quar@@ 26
producers 26
aids 26
Bel@@ 26
insul@@ 26
river 26
Fil@@ 26
esse 26
cali@@ 26
ban 26
dragon 26
reviews 26
cinema 26
soccer 26
flu@@ 26
ark@@ 26
1994 26
lights 26
cont@@ 26
kitchen 26
reli@@ 26
bin 26
Beautiful 26
ben@@ 26
i-@@ 26
doors 26
Child 26
Pop@@ 26
sep@@ 26
6-@@ 26
hop@@ 26
Dou@@ 26
sist@@ 26
AI 26
fire@@ 26
imagination 26
Cen@@ 26
asing 26
input 26
bum@@ 26
drove 26
Bal@@ 26
evening 26
tan 26
yard 26
Much 26
wide 26
belongs 26
ews 26
user 26
shers 26
glasses 26
aves 26
Ax@@ 26
urai 26
2000 26
Soon 26
nails 26
adi@@ 26
row@@ 26
yl 26
night@@ 26
chocol@@ 26
unch 26
hand@@ 26
log 26
ald 26
Clark 26
War 26
novel 26
T-@@ 26
def 26
hen 26
void 26
etings 26
Big@@ 26
agging 26
pur@@ 26
iz 26
Shar@@ 26
scores 26
43 26
rac@@ 26
Wil@@ 26
Tu@@ 26
performer 26
O'@@ 26
Channel 26
eting 26
caution 26
ffer 26
oph@@ 26
ched 26
rely 26
swing 26
attending 26
excitement 26
dist@@ 26
ird 26
nail 26
horn 26
views 26
Blues 26
Video 26
singles 26
characteristics 26
sneak 26
energy 26
families 26
fights 26
Sky 26
spoon 26
Wilson 26
genius 26
sport 26
square 26
ators 26
enemy 26
suffer 26
nonsense 26
cer@@ 26
schedule 26
hidden 26
ball@@ 26
sits 26
shocked 26
frame 26
siblings 26
traditional 26
firm 26
collect 26
explore 26
fond@@ 26
consistently 26
performs 26
regrets 26
concept 26
increase 26
diseases 26
satisfactory 26
1980s 26
indicate 26
Fish 25
skip 25
longest 25
dictionary 25
x-@@ 25
Kr@@ 25
atory 25
washed 25
Anna 25
persu@@ 25
pushing 25
ourselves 25
wing 25
anese 25
911 25
38 25
iz@@ 25
banana 25
acker 25
bubble 25
animated 25
kicking 25
oon 25
23@@ 25
dit@@ 25
grandfather 25
highest 25
bon@@ 25
seventh 25
oc 25
Sol@@ 25
Ty@@ 25
Wake 25
Six 25
Under 25
2003 25
las 25
enni@@ 25
2-@@ 25
Lucas 25
leading 25
ym@@ 25
collection 25
lab@@ 25
assi 25
guard 25
ids 25
format 25
ayer 25
restaurants 25
vis 25
cus 25
ured 25
Mac 25
Inter@@ 25
Arnold 25
accepting 25
69 25
tun@@ 25
Elton 25
fric@@ 25
races 25
student 25
pet@@ 25
styles 25
spoiled 25
refuses 25
lit@@ 25
eddy 25
Face 25
CR 25
complex 25
rows 25
din@@ 25
“ 25
4-@@ 25
spe@@ 25
pressing 25
She@@ 25
ran@@ 25
pin 25
sci@@ 25
explanation 25
Sn@@ 25
bullet 25
Lud@@ 25
cher 25
elderly 25
turn@@ 25
ection 25
thin@@ 25
rown 25
2002 25
anity 25
demand 25
suicide 25
Spid@@ 25
Sel@@ 25
deserved 25
dir@@ 25
Making 25
Comp@@ 25
Air 25
path 25
Marilyn 25
questi@@ 25
ries 25
passing 25
apple 25
covered 25
Hul@@ 25
hobby 25
01 25
Chor@@ 25
aph@@ 25
dam 25
Scott 25
absol@@ 25
aunt 25
tta 25
Smart 25
pieces 25
tor 25
languages 25
ped 25
spare 25
fac@@ 25
east 25
gue 25
pre-@@ 25
concentrate 25
Devil 25
Musical 25
school@@ 25
Au@@ 25
gee 25
topics 25
MS@@ 25
Jo 25
Better 25
You@@ 25
pill@@ 25
electric 25
Justin 25
acks 25
aws 25
Christ 25
Bay 25
AIDS 25
vocalist 25
naive 25
resembles 25
Sand@@ 25
Tru@@ 25
Ricky 25
zoo 25
pregnancy 25
Austin 25
squ@@ 25
provides 25
shared 25
Homer 25
tool 25
diff 25
complaining 25
coat 25
ulate 25
held 25
examples 25
existed 25
tation 25
iring 25
chooses 25
counselor 25
suspect 25
develop 25
intentions 25
Using 25
clarify 25
spoken 25
demonstrate 25
aspects 25
referred 25
encounter 25
skilled 25
thirty-@@ 25
beha@@ 25
Minor 24
posting 24
pal@@ 24
sin@@ 24
rit@@ 24
Alex 24
er-@@ 24
orange 24
monster 24
ror 24
life@@ 24
fling 24
mainstream 24
INS 24
heav@@ 24
Third 24
NL 24
Gra@@ 24
Drive 24
bub@@ 24
Kis@@ 24
itly 24
laughs 24
Lu@@ 24
ania 24
writer 24
rek 24
president 24
Trek 24
Reg@@ 24
theory 24
NET 24
models 24
center 24
signals 24
Wat@@ 24
laying 24
Network 24
spirit 24
vampire 24
vocals 24
ga 24
M.@@ 24
luc@@ 24
Gang 24
by@@ 24
e/@@ 24
signed 24
wrestling 24
separated 24
ised 24
Coll@@ 24
grand 24
Loc@@ 24
ening 24
smith 24
Purple 24
fathers 24
links 24
apartment 24
bly 24
rat 24
16@@ 24
ques 24
call@@ 24
oner 24
raised 24
fought 24
reunion 24
seri@@ 24
dale 24
classics 24
Stri@@ 24
mean@@ 24
revol@@ 24
Run@@ 24
tac@@ 24
ade@@ 24
ax@@ 24
din 24
neat 24
Mrs. 24
Cur@@ 24
gged 24
Drew 24
guitars 24
reside 24
blues 24
py 24
Jeff 24
buc@@ 24
ets 24
aying 24
bone 24
returning 24
uplo@@ 24
Faith 24
compl@@ 24
Play@@ 24
subtle 24
Frankie 24
fec@@ 24
ll@@ 24
voting 24
owe 24
Looking 24
tap 24
imag@@ 24
refers 24
tapes 24
bug 24
hur@@ 24
sen 24
November 24
burning 24
urs 24
treating 24
parking 24
law@@ 24
Secret 24
kno@@ 24
.com/@@ 24
ling@@ 24
eaten 24
onship 24
Lane 24
Mel 24
Work 24
tee 24
y/@@ 24
thoroughly 24
lan@@ 24
thed 24
kl@@ 24
requires 24
equ@@ 24
Fran@@ 24
Eye 24
whisp@@ 24
offers 24
weekends 24
numerous 24
stereotyp@@ 24
hire 24
gaz@@ 24
witnessed 24
As@@ 24
occupied 24
tolerate 24
tendency 24
moral 24
Foll@@ 24
tful 24
irrelevant 24
endeav@@ 24
Similar 24
Final 23
project 23
300 23
Hol@@ 23
cookies 23
Fall@@ 23
Land 23
Break@@ 23
how@@ 23
Dec@@ 23
los 23
writers 23
aye 23
kick@@ 23
Jackie 23
af 23
Howard 23
Movi@@ 23
Shop 23
Berry 23
sound@@ 23
gener@@ 23
Apparently 23
e-up 23
cy 23
Is@@ 23
equals 23
initial 23
Cal@@ 23
aniel 23
tiny 23
bride 23
mac@@ 23
background 23
frog 23
lottery 23
Buff@@ 23
sequ@@ 23
kies 23
bridge 23
esh 23
Allen 23
zza 23
lest 23
breathing 23
Amy 23
sheet 23
Central 23
rot@@ 23
Presley 23
students 23
comp@@ 23
arg@@ 23
pard 23
eni@@ 23
Party 23
carrying 23
Heights 23
Yellow 23
Carter 23
hill@@ 23
rights 23
Songs 23
Wa@@ 23
hunt 23
Lau@@ 23
abilities 23
aries 23
destiny 23
aper 23
PH@@ 23
volume 23
32 23
Chi@@ 23
La@@ 23
Bab@@ 23
grocery 23
Bul@@ 23
posters 23
band@@ 23
mini 23
Rachel 23
wall@@ 23
cop 23
battle 23
mal@@ 23
Monster 23
possi@@ 23
8-@@ 23
spar@@ 23
52 23
article 23
ila 23
Banks 23
countries 23
Sister 23
vice 23
lov@@ 23
Finding 23
ays 23
Adams 23
Open 23
ills 23
sham@@ 23
wonder@@ 23
Media 23
I-@@ 23
skirt 23
cell@@ 23
Uncle 23
icy 23
Virgin 23
toss 23
amo 23
flip 23
December 23
Ign@@ 23
throwing 23
disturbing 23
toon 23
Fear 23
nam@@ 23
amusement 23
oy@@ 23
throughout 23
Scre@@ 23
rey 23
ington 23
47 23
acoustic 23
though@@ 23
birth@@ 23
embarrassing 23
panic 23
feat 23
twisted 23
whip 23
Charlotte 23
contain 23
vocal 23
101 23
zz 23
vent@@ 23
entered 23
versa 23
'n 23
surprises 23
ired 23
fulfill 23
rating 23
chim@@ 23
fath@@ 23
suits 23
worries 23
deceased 23
During 23
determined 23
prevent 23
compreh@@ 23
Furthermore 23
Cauc@@ 23
exceptional 23
Mic@@ 22
TV@@ 22
Sl@@ 22
doc 22
cock 22
fashioned 22
titles 22
Picture 22
golden 22
sources 22
Mag@@ 22
sty@@ 22
M. 22
Santa 22
dge@@ 22
STOR@@ 22
rack 22
Mul@@ 22
According 22
PHO@@ 22
Tonight 22
cin@@ 22
tiger 22
useless 22
cliffe 22
dat@@ 22
wrong@@ 22
tany 22
U.@@ 22
TON 22
BS@@ 22
Pit@@ 22
Yu@@ 22
ampire 22
gem@@ 22
therapy 22
blunt 22
fortunate 22
ami 22
Emma 22
ward 22
Survi@@ 22
Fantasy 22
Rev@@ 22
producer 22
ounce 22
Florida 22
ssy 22
escence 22
Napoleon 22
9.@@ 22
officer 22
25@@ 22
0.@@ 22
Rock@@ 22
sells 22
ocol@@ 22
losers 22
Pok@@ 22
prince 22
convers@@ 22
Times 22
Ama@@ 22
Nor@@ 22
enemies 22
Cob@@ 22
Pat 22
Robin 22
bond 22
san 22
log@@ 22
solved 22
cuts 22
t. 22
und@@ 22
J. 22
Irish 22
mers 22
esel 22
completed 22
atum 22
pts 22
Seth 22
fish@@ 22
Mickey 22
K. 22
ini@@ 22
jan@@ 22
tables 22
Richie 22
ws 22
inking 22
Laf@@ 22
Coc@@ 22
13th 22
nar@@ 22
Ki@@ 22
afternoon 22
Bear 22
traffic 22
entering 22
pas@@ 22
sexuals 22
PT 22
—@@ 22
shin 22
tier 22
wash@@ 22
Kid@@ 22
ester 22
Jan@@ 22
Bit@@ 22
dom@@ 22
presents 22
bike 22
sandwich 22
P. 22
Mac@@ 22
oz 22
unstable 22
broadcast 22
detail 22
Olivia 22
connected 22
harsh 22
wishing 22
iss@@ 22
Sou@@ 22
spin 22
chosen 22
Cham@@ 22
Christina 22
personalities 22
des 22
iling 22
abandon 22
manage 22
Wednesday 22
knowle@@ 22
inct 22
Currently 22
comparison 22
planned 22
sacrifice 22
marriages 22
frigh@@ 22
grateful 22
difficulties 22
circumst@@ 22
attributes 22
transmitted 22
hormones 22
expectations 22
discussion 22
Rather 22
specifically 22
relevant 22
portrayed 22
August 22
loses 21
LP 21
Ann 21
timing 21
audience 21
hall@@ 21
Gri@@ 21
sec@@ 21
to-@@ 21
XX@@ 21
Armstrong 21
Wolf 21
Ter@@ 21
legend 21
ela 21
disorder 21
alphabet 21
biography 21
Nat@@ 21
sizes 21
S. 21
reverse 21
Miller 21
wo@@ 21
will@@ 21
Tree 21
community 21
yn 21
irs 21
stom@@ 21
initially 21
met@@ 21
knees 21
Sara 21
ji 21
aby 21
Roberts 21
Dylan 21
Ed@@ 21
Hun@@ 21
eller 21
eling 21
Len@@ 21
anu 21
Dro@@ 21
Tur@@ 21
angle 21
che 21
Jim@@ 21
Dynam@@ 21
opes 21
standard 21
shop@@ 21
speakers 21
J-@@ 21
arts 21
asses 21
bin@@ 21
Rac@@ 21
Ma@@ 21
chair 21
gers 21
nier 21
ums 21
TT 21
sick@@ 21
airing 21
diamonds 21
000 21
canceled 21
sand@@ 21
maker 21
aur@@ 21
Doll@@ 21
Sammy 21
talents 21
DS@@ 21
publicity 21
borrow 21
Twins 21
cand@@ 21
thir@@ 21
Dan@@ 21
iro 21
ained 21
literally 21
Rab@@ 21
agg@@ 21
es/@@ 21
Snow 21
holy 21
arm@@ 21
g-@@ 21
homo@@ 21
Stewart 21
blo@@ 21
iron 21
lesson 21
tin@@ 21
Jes@@ 21
May@@ 21
snake 21
candles 21
oever 21
ezer 21
compete 21
Room 21
Flowers 21
conclusion 21
ort 21
Ha@@ 21
On@@ 21
products 21
East@@ 21
vom@@ 21
enti@@ 21
youngest 21
crossed 21
fest 21
Tw@@ 21
Lyn@@ 21
Jour@@ 21
forty 21
deon 21
Bri@@ 21
millions 21
n'@@ 21
author 21
Chad 21
anti 21
itting 21
brake 21
jew@@ 21
picnic 21
Murphy 21
throws 21
gam@@ 21
locked 21
East 21
Rhy@@ 21
rot 21
Swe@@ 21
holds 21
Rav@@ 21
olds 21
thus 21
exception 21
lang 21
fif@@ 21
muscles 21
Deep 21
rage 21
treatment 21
hon 21
joined 21
involve 21
thic 21
Res@@ 21
importantly 21
focused 21
stable 21
plat@@ 21
buys 21
damage 21
ist@@ 21
PT@@ 21
Washington 21
waist 21
hes@@ 21
Almost 21
anxious 21
Gent@@ 21
error 21
conversations 21
partial 21
spends 21
distant 21
ogne 21
charm 21
expressing 21
muscular 21
vows 21
contr@@ 21
services 21
safety 21
favors 21
itals 21
ior 21
impl@@ 21
authentic 21
Provi@@ 21
ro 20
slim 20
ck@@ 20
Murray 20
cho 20
Dun@@ 20
ags 20
bes 20
vac@@ 20
Um@@ 20
Wind 20
parked 20
display 20
Dragon 20
95 20
vs. 20
aliens 20
kit 20
airplane 20
ratings 20
jacket 20
roll@@ 20
whi@@ 20
Cam@@ 20
exclusive 20
ilton 20
Jer@@ 20
ando 20
picks 20
Santana 20
tical 20
codes 20
burst 20
ments 20
cauc@@ 20
cam@@ 20
help@@ 20
ailed 20
64 20
earing 20
yi@@ 20
march 20
holes 20
ni 20
owned 20
teachers 20
Blin@@ 20
D. 20
shadow 20
blank 20
viol@@ 20
settings 20
carries 20
err@@ 20
bees 20
satisfaction 20
poetry 20
repeating 20
sia 20
Ow@@ 20
Grey 20
ek@@ 20
sma@@ 20
spr@@ 20
nick@@ 20
jam 20
PC 20
refer@@ 20
pron@@ 20
clock 20
:@@ 20
honey@@ 20
exotic 20
Pres@@ 20
advertising 20
Ohio 20
tera 20
len@@ 20
EA 20
previ@@ 20
ray 20
quick@@ 20
Aaron 20
rash 20
Far@@ 20
decade 20
yeh 20
holidays 20
ancy 20
drum@@ 20
Radi@@ 20
bare 20
copies 20
install 20
Pic@@ 20
soup 20
adverti@@ 20
mit 20
indi@@ 20
ero 20
horri@@ 20
Hood 20
zen 20
illing 20
cliff 20
ugg@@ 20
trans@@ 20
mere 20
vo 20
keyboard 20
sharp 20
aches 20
raw 20
Squ@@ 20
''@@ 20
aker 20
End 20
tear 20
ote 20
De 20
Tro@@ 20
responding 20
weigh 20
giant 20
wheel 20
Operation 20
icia 20
Jon@@ 20
tics 20
Hall 20
pres@@ 20
Bryan 20
Cri@@ 20
fries 20
Vince 20
18@@ 20
remem@@ 20
stolen 20
vor@@ 20
Shawn 20
acked 20
coast 20
fied 20
jects 20
coup@@ 20
practicing 20
compared 20
illi@@ 20
sorts 20
inferior 20
leather 20
kle 20
dis 20
herd 20
Russian 20
sch@@ 20
bound 20
pedia 20
victim 20
fel@@ 20
dles 20
Neil 20
lasted 20
Travis 20
Fer@@ 20
enders 20
Males 20
ob 20
essive 20
swimming 20
Neg@@ 20
pills 20
remin@@ 20
ains 20
nowadays 20
bourne 20
News 20
sperm 20
stuffed 20
over-@@ 20
Reese 20
ayed 20
Pro 20
shaped 20
suitable 20
equivalent 20
owing 20
depth 20
Sho@@ 20
boot 20
Tom@@ 20
pill 20
on-@@ 20
pped 20
device 20
deleted 20
Prison 20
passes 20
circle 20
Each 20
agrees 20
opportunities 20
Kingdom 20
excessive 20
stating 20
disappointing 20
offered 20
revealed 20
varies 20
proposal 20
abst@@ 20
thre@@ 20
formal 20
racial 20
preferences 20
fallen 20
affairs 20
Eventually 20
financial 20
understands 20
occasions 20
compani@@ 20
firm@@ 20
portion 20
reasoning 20
purchasing 20
regards 20
ners 19
Haz@@ 19
cure 19
buck 19
billion 19
filming 19
mul@@ 19
oot 19
Mouse 19
Kri@@ 19
rob@@ 19
9th 19
buzz 19
Together 19
Stern 19
Pul@@ 19
Living 19
emy 19
Die 19
sour 19
14@@ 19
Ev@@ 19
nud@@ 19
banned 19
Ban@@ 19
Gun 19
usa 19
lighter 19
Jet 19
bitter 19
Add 19
animation 19
W. 19
rice 19
streets 19
LAN@@ 19
mint 19
read@@ 19
ham 19
vey 19
rocked 19
eron 19
Knight 19
stun@@ 19
ures 19
Around 19
Change 19
aton 19
zard 19
atts 19
bloody 19
Cin@@ 19
plac@@ 19
expression 19
ren 19
neighborhood 19
ome@@ 19
whe@@ 19
House@@ 19
IV 19
credited 19
Ford 19
Zo@@ 19
dee 19
absolute 19
Brooks 19
nik 19
Lean 19
retired 19
III 19
Dre@@ 19
Hammer 19
Flash 19
central 19
mystery 19
January 19
failure 19
eline 19
Lep@@ 19
oming 19
Jam@@ 19
Sig@@ 19
ellow 19
mal 19
Id@@ 19
resolve 19
Pap@@ 19
WR@@ 19
er/@@ 19
Sun 19
11@@ 19
lift 19
Terry 19
Half 19
hoped 19
writes 19
limited 19
Bed@@ 19
Black@@ 19
labeled 19
government 19
esting 19
fem@@ 19
Yang 19
Golden 19
Christopher 19
fi 19
trav@@ 19
44 19
zone 19
zom@@ 19
xi@@ 19
s. 19
bers 19
av 19
Wild 19
repair 19
Craig 19
ices 19
Holly 19
Comics 19
800 19
insert 19
OC 19
belt 19
Sonny 19
Triple 19
hearted 19
industry 19
Tot@@ 19
Fred@@ 19
dig@@ 19
Kyle 19
sume 19
aly@@ 19
signing 19
helping 19
mind@@ 19
reported 19
Sing@@ 19
Wood 19
navigate 19
Magazine 19
fru@@ 19
junior 19
slapped 19
ied 19
itch@@ 19
destination 19
17@@ 19
Male 19
Americans 19
throat 19
Pal@@ 19
Jake 19
Can@@ 19
Holl@@ 19
ima 19
1970 19
land@@ 19
Buddy 19
Academy 19
ders 19
owner 19
zes 19
medi@@ 19
vic@@ 19
Ocean 19
peri@@ 19
aty 19
lock@@ 19
aces 19
lists 19
profiles 19
hosts 19
wrap 19
CES 19
Elliott 19
Anthony 19
claimed 19
worship 19
Alice 19
unknown 19
stairs 19
restr@@ 19
counting 19
data 19
ords 19
Top@@ 19
ellas 19
positively 19
onaire 19
Italian 19
Inv@@ 19
reflect 19
span@@ 19
Part 19
Japan 19
versus 19
protected 19
supp@@ 19
jac@@ 19
reput@@ 19
photograph 19
reached 19
embarr@@ 19
Except 19
minimum 19
judging 19
weddings 19
tested 19
forgiveness 19
figures 19
arguments 19
inquiry 19
incts 19
Bible 19
doubts 19
erie 19
define 19
financially 19
creating 19
dwell 19
ditionally 19
solely 19
interact 19
advis@@ 19
adequate 19
essively 19
Cut 18
seven@@ 18
Hits 18
basket 18
agon@@ 18
noc@@ 18
Ka@@ 18
kor@@ 18
gig 18
ligh@@ 18
lad@@ 18
seed 18
Clinton 18
Vo@@ 18
knocked 18
Ron 18
garden 18
Sub@@ 18
Cop@@ 18
deals 18
creatures 18
lad 18
bb@@ 18
costume 18
Art 18
lar@@ 18
Od@@ 18
War@@ 18
ences 18
tran@@ 18
underground 18
Evil 18
atable 18
orang@@ 18
dedicated 18
providing 18
indie 18
G.@@ 18
Spike 18
poster 18
Cap@@ 18
Kag@@ 18
ano@@ 18
awards 18
250 18
List 18
production 18
curse 18
beside 18
jok@@ 18
Lion 18
mus 18
reck@@ 18
agged 18
oring 18
WA 18
graph 18
secrets 18
Dennis 18
amazed 18
top@@ 18
need@@ 18
cave 18
satur@@ 18
ordinary 18
Trans@@ 18
Fox@@ 18
ele@@ 18
airy 18
Bo 18
daughters 18
breed 18
foremost 18
chain 18
Close 18
magical 18
vious 18
Sound@@ 18
terribly 18
Troy 18
att 18
alian 18
apper 18
tail 18
dr 18
tooth@@ 18
NY@@ 18
represents 18
pirates 18
gri@@ 18
77 18
silence 18
burned 18
ven 18
silver 18
lay@@ 18
poker 18
Lon@@ 18
forms 18
joy@@ 18
Beat 18
bill@@ 18
salt 18
bid 18
plant 18
clu@@ 18
Air@@ 18
39 18
wa 18
100@@ 18
racing 18
Rod 18
maiden 18
berry 18
evin 18
Duke 18
Hindi 18
Ba@@ 18
norm@@ 18
shots 18
ture 18
85 18
nightmare 18
ld 18
wrestler 18
buff@@ 18
shipping 18
Tyler 18
athe 18
studying 18
circus 18
erine 18
ignoring 18
deser@@ 18
ucks 18
Oscar 18
needle 18
slower 18
fal@@ 18
Gates 18
80@@ 18
facial 18
Based 18
thm 18
ula 18
edn@@ 18
Ni@@ 18
wished 18
36@@ 18
graduation 18
tell@@ 18
studios 18
believable 18
Sher@@ 18
Eight 18
Up@@ 18
Mars 18
Holiday 18
uni@@ 18
entine 18
stood 18
Fu@@ 18
xy 18
touched 18
description 18
fic 18
dict@@ 18
mach@@ 18
Swi@@ 18
bold 18
explode 18
dia@@ 18
income 18
aging 18
ba@@ 18
cur 18
flash@@ 18
shortly 18
torn 18
Doc 18
ree 18
companions 18
mist@@ 18
apparent 18
scope 18
cav@@ 18
tel 18
fying 18
Thursday 18
butter@@ 18
continued 18
producing 18
Given 18
young@@ 18
gasoline 18
survive 18
penetr@@ 18
odor 18
Imagine 18
rejection 18
science 18
relaxed 18
gather 18
February 18
eful@@ 18
employed 18
Seven@@ 18
comparable 18
endure 18
erly 18
balance 18
divor@@ 18
Focus 18
advances 18
conflict 18
invitation 18
efforts 18
occupy 18
ological 18
obtained 18
acquired 18
Correc@@ 18
interpret 17
| 17
tu 17
Greatest 17
preview 17
Rit@@ 17
Louis 17
Bow@@ 17
amma 17
Dor@@ 17
Mam@@ 17
esa 17
Earl 17
forum 17
overall 17
kills 17
depend@@ 17
Canadian 17
flic@@ 17
vers@@ 17
spot@@ 17
jury 17
Amanda 17
75 17
Sound 17
movements 17
Num@@ 17
Force 17
Charles 17
Germany 17
Reli@@ 17
Apo@@ 17
rist 17
German 17
Sav@@ 17
Ai@@ 17
harmful 17
haw@@ 17
Sue 17
nerve 17
posed 17
Pirates 17
shock 17
Sad@@ 17
aurus 17
listings 17
priest 17
ille 17
amas 17
matches 17
breathe 17
disturbed 17
Nap@@ 17
da@@ 17
millionaire 17
Crow 17
Kn@@ 17
Ug@@ 17
Reeves 17
hang@@ 17
Son 17
Lem@@ 17
atom@@ 17
app 17
black@@ 17
TC 17
Ken@@ 17
side@@ 17
ucker 17
Andy 17
October 17
coach 17
shi 17
union 17
Office 17
NC 17
ented 17
” 17
55 17
step@@ 17
wave 17
kr@@ 17
steak 17
at-@@ 17
Coo@@ 17
51 17
ache 17
Through 17
neighbors 17
Conn@@ 17
rod 17
13@@ 17
bed@@ 17
pile 17
overs 17
Thr@@ 17
market 17
in-@@ 17
pt 17
Grand 17
Daugh@@ 17
Boulevard 17
ody 17
nes 17
Canada 17
predict 17
Carmen 17
pho@@ 17
2001 17
lane 17
ghtest 17
Later 17
Monroe 17
verify 17
pump 17
king@@ 17
funeral 17
joining 17
£@@ 17
10th 17
acious 17
total@@ 17
ref@@ 17
Meg@@ 17
after@@ 17
athy 17
snap 17
oul 17
cooler 17
Tina 17
vul@@ 17
omer@@ 17
risks 17
Monica 17
finity 17
aut@@ 17
Princess 17
oles 17
lik 17
Scen@@ 17
Chap@@ 17
advertisement 17
drops 17
gger 17
Tiger 17
Kit@@ 17
TA 17
Eva 17
McGra@@ 17
entry 17
paran@@ 17
oid 17
Water 17
gray 17
brief 17
ood 17
roles 17
sympathy 17
spray 17
Stand 17
Touch 17
beating 17
tes 17
refused 17
Rose@@ 17
Ross 17
residence 17
hide@@ 17
sins 17
Gl@@ 17
buster 17
regre@@ 17
Mus@@ 17
accomplished 17
cows 17
Dist@@ 17
sauce 17
stub@@ 17
desperation 17
Share 17
pace 17
frustrated 17
ced 17
poli@@ 17
golf 17
senior 17
aling 17
appearing 17
bits 17
Anderson 17
weekly 17
insist 17
chemistry 17
Taking 17
Pen@@ 17
priced 17
involves 17
witness 17
fies 17
Os@@ 17
automatically 17
afterward 17
tian 17
hard@@ 17
sympath@@ 17
gar 17
valuable 17
purely 17
athletic 17
CC@@ 17
degree 17
oled 17
blanket 17
prostitutes 17
guilt 17
fai@@ 17
laundry 17
ex-wife 17
facts 17
Elizabeth 17
sue 17
granted 17
Ang@@ 17
peti@@ 17
meets 17
strang@@ 17
appreci@@ 17
progress 17
ased 17
unfair 17
potatoes 17
coun@@ 17
containing 17
factor 17
rear 17
limits 17
discussed 17
sible 17
communicating 17
eness 17
forehand 17
reconsider 17
severe 17
importance 17
utili@@ 17
Acc@@ 17
eteen 17
examine 17
unacceptable 17
abl@@ 16
ouch 16
tari@@ 16
waves 16
exchange 16
dur@@ 16
mighty 16
Perfect 16
engines 16
rang@@ 16
sear@@ 16
Cat 16
Vincent 16
Army 16
sional 16
ils 16
ida 16
40@@ 16
How@@ 16
B-@@ 16
great@@ 16
root 16
Khan 16
tered 16
adventure 16
puzz@@ 16
ux 16
Men@@ 16
pay@@ 16
dull 16
Cy@@ 16
instructions 16
Larry 16
anca 16
doll@@ 16
Blood 16
Lab@@ 16
lan 16
AOL 16
kil@@ 16
goat 16
pub@@ 16
wax 16
rents 16
bucket 16
Series 16
Jar@@ 16
China 16
Dean 16
pear@@ 16
Meredith 16
Henry 16
Mafia 16
dropped 16
urban 16
companies 16
LC 16
Wolver@@ 16
debut 16
Ten@@ 16
nowhere 16
Day@@ 16
assed 16
dres@@ 16
Nic@@ 16
Sinatra 16
ata 16
Tuesday 16
T. 16
Questions 16
Ian 16
anti@@ 16
Hot@@ 16
ji@@ 16
Wy@@ 16
wealth 16
Latin 16
skating 16
walls 16
spots 16
Mass@@ 16
grace 16
craft 16
lions 16
mun@@ 16
400 16
Stephen 16
honor 16
cleaner 16
sends 16
hype 16
blood@@ 16
review 16
myth 16
Abdul 16
ph 16
dead@@ 16
sunny 16
rejects 16
lig@@ 16
gospel 16
Sal@@ 16
Between 16
fastest 16
Kir@@ 16
ener 16
sto@@ 16
Mater@@ 16
cing 16
gues 16
Kat@@ 16
1983 16
Ham@@ 16
Wendy 16
sounding 16
onica 16
Gor@@ 16
listing 16
bread 16
nas@@ 16
Train 16
dex 16
Ring 16
Kill@@ 16
Seven 16
OS 16
entertain@@ 16
oes 16
world@@ 16
arr@@ 16
traveling 16
offering 16
remote 16
beloved 16
skin@@ 16
ock@@ 16
handed 16
dust 16
Robbie 16
Warner 16
al-@@ 16
Karen 16
C-@@ 16
ination 16
ann 16
Fur@@ 16
Guide 16
ense 16
Light 16
Records 16
Ellen 16
critical 16
90@@ 16
bloom 16
poc@@ 16
casting 16
touring 16
Bond 16
remo@@ 16
aved 16
Rick 16
Hear@@ 16
cheer 16
winter 16
Logan 16
ed-@@ 16
Pad@@ 16
issa 16
Amazon.com 16
dio 16
Pac@@ 16
ower 16
panc@@ 16
aven@@ 16
Deli@@ 16
hunting 16
Matt 16
Photo@@ 16
adoles@@ 16
General 16
Heavy 16
acid 16
developed 16
Ye@@ 16
purse 16
tance 16
Tomorrow 16
Tel@@ 16
gad@@ 16
classified 16
muscle 16
arded 16
powder 16
origin@@ 16
bble 16
Beverly 16
otic 16
ali 16
tman 16
apo@@ 16
Stu@@ 16
deaf 16
cooks 16
spl@@ 16
advanced 16
loudly 16
pir@@ 16
directions 16
temper 16
bonus 16
explains 16
tax 16
Georgia 16
gained 16
Rico 16
described 16
appro@@ 16
ailing 16
Hip@@ 16
gays 16
venture 16
hardest 16
popularity 16
Contact 16
forming 16
precious 16
suspicious 16
specify 16
initiate 16
baggage 16
commit@@ 16
brac@@ 16
supportive 16
assumption 16
expressed 16
veness 16
advised 16
eager 16
deli@@ 16
remained 16
tire 16
Whi@@ 16
trait 16
tances 16
asser@@ 16
unsuccessful 16
possesses 16
continuing 16
significantly 16
Carolina 16
computers 15
eras 15
Walker 15
Rush 15
Roger 15
ounc@@ 15
120 15
Shel@@ 15
Nathan 15
utch 15
deci@@ 15
adds 15
week@@ 15
dless 15
soda 15
rell 15
western 15
polar 15
sup@@ 15
Shi@@ 15
HP 15
05 15
discs 15
dancers 15
ggs 15
El 15
hr 15
uk@@ 15
Gei@@ 15
regularly 15
IA@@ 15
mir@@ 15
plugg@@ 15
INA 15
ross 15
mins 15
Europe 15
Dana 15
diet 15
odds 15
garage 15
vable 15
cakes 15
specially 15
jet 15
Forrest 15
ram@@ 15
200@@ 15
launch 15
chasing 15
alized 15
kee 15
nation 15
whit@@ 15
weapon 15
wagon 15
matt@@ 15
Gee 15
alley 15
directed 15
Ear@@ 15
ORS 15
BT 15
70s 15
ora 15
IX 15
Feder@@ 15
quir@@ 15
monkeys 15
Arthur 15
Van@@ 15
Crosby 15
cla@@ 15
Dr 15
Den@@ 15
Worth 15
Mail 15
ku@@ 15
hid 15
Page 15
hic@@ 15
dropping 15
flaws 15
ont 15
reception 15
Victoria 15
Spot 15
cracks 15
ari 15
see@@ 15
electronic 15
Pepsi 15
Letterman 15
fin 15
Sally 15
shor@@ 15
meaning@@ 15
yor 15
fig@@ 15
fade 15
Ever@@ 15
WIT@@ 15
programming 15
pronounced 15
é 15
danc@@ 15
hall 15
doctors 15
frank@@ 15
icking 15
icon 15
stock 15
sued 15
notebook 15
leap 15
mim@@ 15
Les 15
ret 15
blows 15
Watson 15
houses 15
gal@@ 15
gy@@ 15
hills 15
sack 15
88 15
ficial 15
1988 15
agu@@ 15
Wing 15
fees 15
Natalie 15
2007 15
54 15
elin 15
gil@@ 15
test@@ 15
bookstore 15
Whitney 15
hyster@@ 15
Heather 15
ska 15
27@@ 15
Row@@ 15
horses 15
gaming 15
edic 15
relative 15
HM@@ 15
copied 15
funds 15
10.@@ 15
shiny 15
Ur@@ 15
selected 15
dessert 15
Blu@@ 15
jugg@@ 15
Ay@@ 15
armed 15
46 15
pan 15
K.@@ 15
Mid@@ 15
productive 15
wipe 15
reas@@ 15
shark 15
smil@@ 15
cum@@ 15
serves 15
Fat@@ 15
berries 15
technically 15
ett 15
fort 15
pat@@ 15
wrest@@ 15
lit 15
cigarette 15
sby 15
7.@@ 15
sticking 15
mony 15
Awards 15
olog@@ 15
tied 15
9-@@ 15
greet 15
spa 15
crossing 15
Janet 15
dians 15
stressed 15
Shaw@@ 15
mare 15
wherever 15
stre@@ 15
otype 15
register 15
complet@@ 15
applies 15
involving 15
Adult 15
Pat@@ 15
Carl 15
round@@ 15
performances 15
Led@@ 15
landed 15
Block 15
upside 15
salad 15
allowing 15
steen 15
au 15
Emer@@ 15
dering 15
Rider 15
pain@@ 15
gut@@ 15
audition 15
medication 15
beef 15
suggested 15
Bloo@@ 15
eping 15
ond 15
poison 15
edom 15
Thunder@@ 15
blessed 15
aby@@ 15
Sy@@ 15
recover 15
asti@@ 15
tending 15
demon 15
Television 15
explained 15
dressing 15
Long@@ 15
invest 15
convinced 15
cherry 15
intentionally 15
submit 15
passionate 15
eas@@ 15
Fut@@ 15
p-@@ 15
cart 15
Philippines 15
eh@@ 15
caps 15
esses 15
challenging 15
Burger 15
Caribbean 15
Joan 15
Hannah 15
comparing 15
appear@@ 15
policy 15
Monday 15
vial 15
expl@@ 15
Target 15
priv@@ 15
privacy 15
thumb 15
facing 15
conduct 15
legitimate 15
valid 15
sens@@ 15
tment 15
rebound 15
respects 15
UNI@@ 15
routine 15
relation@@ 15
destined 15
devi@@ 15
persist 15
defend 15
fulfilling 15
constant 15
manipulate 15
strength 15
conqu@@ 15
two-@@ 15
interfere 15
notic@@ 15
investigate 15
arrives 15
infant 15
recommended 15
Jewish 15
unclear 15
Typically 15
admir@@ 15
generate 15
incorrectly 15
Secondly 15
entirety 15
exce@@ 15
similarly 15
Remove 15
it-@@ 14
aft 14
Psy@@ 14
106 14
Mighty 14
Fiction 14
Benny 14
past@@ 14
taker 14
quarter 14
digital 14
Toronto 14
brok@@ 14
gary 14
Li 14
Cage 14
MED@@ 14
entr@@ 14
GA 14
taxi 14
errors 14
shooting 14
RA 14
projects 14
Ven@@ 14
iner 14
E-mail 14
absurd 14
wonders 14
arguing 14
gus 14
Lad@@ 14
Ferr@@ 14
cab 14
1972 14
cutting 14
heroin 14
Keys 14
sitcom 14
asty 14
Dallas 14
coffin 14
nov@@ 14
parks 14
14th 14
other@@ 14
ule 14
Eagles 14
Curtis 14
1982 14
farm 14
C. 14
ski 14
ggers 14
graphy 14
cracked 14
SR@@ 14
stabbed 14
wan@@ 14
edition 14
Pol@@ 14
department 14
NC@@ 14
succ@@ 14
Playboy 14
slide 14
grill 14
Ex 14
Oklahoma 14
home@@ 14
stretch 14
copyright 14
mes@@ 14
ri 14
fred 14
surgeon 14
BM@@ 14
starters 14
Dol@@ 14
dang@@ 14
storm 14
bump@@ 14
asy 14
oria 14
outrageous 14
Sec@@ 14
Broadway 14
spec@@ 14
Hawk 14
shine 14
bell@@ 14
Car 14
Rub@@ 14
adding 14
ais@@ 14
ditions 14
,00@@ 14
sales 14
Hav@@ 14
blowing 14
mos 14
alled 14
acre 14
twi@@ 14
iler 14
ich 14
ades 14
ech 14
pati@@ 14
china 14
Y-@@ 14
Hunter 14
Gene 14
rah 14
vinyl 14
Vin@@ 14
ially 14
element 14
foo@@ 14
Pho@@ 14
Teddy 14
assumed 14
erto 14
Hank 14
bir@@ 14
apol@@ 14
eon 14
xie 14
north 14
port 14
¡@@ 14
cab@@ 14
boom 14
ox 14
atty 14
E. 14
spin@@ 14
Large 14
manager 14
tooth 14
Sunshine 14
atching 14
Steven 14
instruments 14
Vel@@ 14
azz 14
cities 14
Lionel 14
stream 14
comedian 14
ben 14
KL@@ 14
Foster 14
Turner 14
60@@ 14
lands 14
grad@@ 14
disk 14
Female 14
Maria 14
dling 14
pond 14
fitting 14
fearing 14
Silver 14
eth@@ 14
farmer 14
tennis 14
blade 14
swinging 14
Ou@@ 14
Russell 14
Crow@@ 14
AA 14
Burton 14
Fighting 14
Ah@@ 14
bob@@ 14
liest 14
W-@@ 14
elevator 14
86@@ 14
serial 14
ultimate 14
tag 14
Phone 14
Vol@@ 14
h-@@ 14
update 14
eous 14
ingle 14
Parker 14
Leonardo 14
trained 14
grav@@ 14
served 14
must@@ 14
Pin@@ 14
ood@@ 14
opens 14
curb 14
bath@@ 14
age@@ 14
superb 14
toge@@ 14
runk 14
meantime 14
tuning 14
writ@@ 14
Pot@@ 14
St 14
Phoenix 14
thousands 14
Ul@@ 14
shrimp 14
knee 14
powers 14
vet 14
Antonio 14
Morrison 14
Hand 14
struck 14
chann@@ 14
Hit@@ 14
ern@@ 14
Gerard 14
Shannon 14
painted 14
Key 14
destroy 14
notices 14
smoothly 14
fighter 14
pulls 14
Spring 14
Edge 14
Orange 14
fid@@ 14
cooked 14
exploring 14
elo@@ 14
sized 14
College 14
fast@@ 14
Unlike 14
assing 14
set@@ 14
Freddie 14
zzle 14
completing 14
earned 14
ging 14
Kentucky 14
measure 14
strikes 14
fle@@ 14
gig@@ 14
anus 14
pulling 14
Max 14
eal@@ 14
stance 14
boxes 14
habits 14
pot 14
ren@@ 14
household 14
YouTube 14
Cancer 14
Friend@@ 14
admitting 14
ational 14
congrat@@ 14
roughly 14
periods 14
incident 14
attered 14
protective 14
promises 14
egoti@@ 14
studies 14
spite 14
thfully 14
focusing 14
existing 14
sensation 14
curiosity 14
receives 14
participating 14
betr@@ 14
inviting 14
motiv@@ 14
simultaneously 14
discre@@ 14
consent 14
Laugh@@ 14
statements 14
believing 14
portray 14
straightforward 14
proves 14
sixty 14
employment 14
favorable 14
attempts 14
unfamiliar 14
decline 14
Afterwards 14
Late 13
assured 13
oller 13
marks 13
Bar 13
Bart 13
swings 13
satellite 13
enes 13
short@@ 13
Life@@ 13
pac@@ 13
perfec@@ 13
Marvin 13
Chan 13
predictable 13
atra 13
Fro@@ 13
guest 13
ado 13
Jersey 13
ele 13
aul@@ 13
Jose 13
respectable 13
psy@@ 13
aver 13
training 13
Opera 13
coin 13
berg 13
bu 13
simil@@ 13
cel@@ 13
Alex@@ 13
Sea 13
door@@ 13
grou@@ 13
… 13
mam@@ 13
Sup@@ 13
matrix 13
supposedly 13
opy 13
anatom@@ 13
duo 13
climb 13
flavor 13
Book 13
lop@@ 13
kman 13
CBS 13
adam@@ 13
Ny@@ 13
Ele@@ 13
A. 13
suited 13
Eli@@ 13
Spirit 13
factory 13
zel 13
Fab@@ 13
fork 13
tele@@ 13
Sundays 13
chal@@ 13
fing@@ 13
Consid@@ 13
bio 13
pow@@ 13
Island 13
homer 13
tus 13
Boston 13
Joy 13
10,000 13
1993 13
F.@@ 13
bach@@ 13
89 13
mix@@ 13
stereo 13
nies 13
stein 13
rus 13
mit@@ 13
mid-@@ 13
Court 13
bringing 13
plum@@ 13
Bad@@ 13
bia 13
printed 13
Tra@@ 13
abe@@ 13
Mr@@ 13
map 13
Set 13
Jean 13
enters 13
Hearts 13
sus@@ 13
lifting 13
cham@@ 13
ampi@@ 13
dou@@ 13
Xbox 13
Coun@@ 13
eno@@ 13
UPS 13
Melissa 13
tim 13
gram@@ 13
creator 13
pirate 13
finances 13
anni@@ 13
41 13
pilot 13
signal 13
engagement 13
tuned 13
zo 13
heed 13
esp@@ 13
Bride 13
ridic@@ 13
offs 13
ppi 13
bizarre 13
sier 13
slave 13
Town 13
ature 13
supply 13
Pai@@ 13
depression 13
scratch 13
recorder 13
Bowie 13
edited 13
aim 13
movement 13
Cla@@ 13
conservative 13
dial 13
audi@@ 13
fix@@ 13
ura 13
touch@@ 13
announced 13
LINE 13
ult 13
Title 13
bal 13
Cameron 13
Color 13
Rai@@ 13
chairs 13
Viol@@ 13
poems 13
condition 13
bering 13
D'@@ 13
technique 13
melt 13
cafe 13
Coast 13
CT@@ 13
heights 13
intriguing 13
admitted 13
aded 13
detailed 13
porch 13
600 13
meaningful 13
yang 13
judges 13
Small 13
Gold 13
sa@@ 13
Station 13
time@@ 13
sheep 13
downs 13
Point 13
no-@@ 13
Korean 13
ashes 13
flew 13
Osc@@ 13
merchandise 13
acey 13
power@@ 13
obsession 13
initi@@ 13
Brooke 13
conc@@ 13
chew@@ 13
ento 13
Marie 13
vers 13
Off@@ 13
worms 13
stroke 13
wooden 13
extr@@ 13
Om@@ 13
tricky 13
Sop@@ 13
downtown 13
temporary 13
Too@@ 13
ater@@ 13
bust 13
Bass 13
Roy 13
aco 13
danced 13
pag@@ 13
dum 13
State 13
gesture 13
folk 13
45@@ 13
recep@@ 13
Gabriel 13
AG 13
potato 13
biting 13
Low 13
Welcome 13
Hay@@ 13
addiction 13
thrown 13
four@@ 13
Osama 13
Collins 13
lif@@ 13
invisible 13
Sen@@ 13
ologist 13
stere@@ 13
tious 13
practically 13
breaker 13
Az@@ 13
fist 13
mask 13
Middle 13
Fru@@ 13
reflection 13
Lloyd 13
randomly 13
appointment 13
prices 13
hyp@@ 13
praying 13
faults 13
sely 13
trial 13
abused 13
tens 13
appearances 13
desi@@ 13
drift 13
rushed 13
humble 13
24-@@ 13
stall 13
O-@@ 13
asons 13
apt 13
stres@@ 13
ema 13
tness 13
transfer 13
glance 13
criteria 13
Greek 13
Research 13
itate 13
ested 13
primarily 13
plate 13
jungle 13
aus@@ 13
risky 13
precisely 13
Lag@@ 13
exit 13
cigarettes 13
headache 13
ental 13
rushing 13
relatives 13
frustrating 13
comfor@@ 13
surname 13
military 13
counc@@ 13
Center 13
Op@@ 13
reliable 13
tively 13
presently 13
Flu@@ 13
suring 13
sual 13
persuade 13
assault 13
attracts 13
testing 13
ency 13
realizing 13
harm@@ 13
observed 13
compromise 13
meals 13
repeated 13
firmly 13
approaching 13
retain 13
users 13
oster@@ 13
locker 13
consists 13
therapist 13
tension 13
behalf 13
Generally 13
orientation 13
unexpected 13
presented 13
centered 13
wrapped 13
ulation 13
punishment 13
requests 13
unnecessary 13
erous 13
factors 13
questioning 13
continuously 13
concerns 13
taining 13
requirement 13
injured 13
educational 12
tice 12
nee 12
Revol@@ 12
som 12
STORY 12
preacher 12
anked 12
je 12
Beaver 12
nit@@ 12
bon 12
57 12
Web@@ 12
assy 12
knoc@@ 12
Factory 12
Conf@@ 12
approaches 12
bus@@ 12
Sty@@ 12
beings 12
knocking 12
outh 12
Ren@@ 12
lear@@ 12
recognized 12
sink 12
pains 12
Miles 12
N-@@ 12
Daily 12
Report 12
sky@@ 12
buttons 12
49 12
Rec@@ 12
Oz 12
112 12
med@@ 12
itated 12
par 12
enty 12
stor@@ 12
fortun@@ 12
native 12
casino 12
own@@ 12
coll@@ 12
sus 12
ound@@ 12
organ 12
Body 12
posi@@ 12
pour 12
Woo@@ 12
BA 12
tank 12
ASH@@ 12
subscri@@ 12
nearest 12
Jenny 12
inge 12
addresses 12
anis 12
K-@@ 12
Iraq 12
olic 12
ago@@ 12
tre 12
97 12
Inside 12
shore 12
medicine 12
Carlos 12
Da@@ 12
L-@@ 12
roof 12
Electric 12
tang@@ 12
po 12
Pist@@ 12
n-@@ 12
martial 12
woods 12
mond 12
touches 12
composed 12
murdered 12
hus@@ 12
pepper 12
Pan 12
stepped 12
forc@@ 12
bottles 12
Fant@@ 12
Rob@@ 12
59 12
kel@@ 12
adle 12
nerv@@ 12
Sydney 12
iled 12
Cher@@ 12
symbol 12
Indiana 12
Nu@@ 12
resume 12
Prom@@ 12
Del 12
tar@@ 12
worn 12
ared 12
saw@@ 12
ola 12
Sin@@ 12
AC 12
delivery 12
denies 12
ury 12
Legend 12
pers@@ 12
90s 12
Tar@@ 12
seeds 12
butterfly 12
Flying 12
ables 12
heroes 12
half-@@ 12
Over@@ 12
53 12
Track 12
Sunset 12
heavier 12
Mix 12
primary 12
Fra@@ 12
workers 12
py@@ 12
Chop@@ 12
an-@@ 12
tro 12
Cooper 12
xes 12
Agent 12
Roll@@ 12
div@@ 12
hul@@ 12
Average 12
warn 12
browser 12
ghters 12
Strange 12
warning 12
1998 12
Emily 12
bage 12
avo@@ 12
lem 12
Others 12
ice@@ 12
ists 12
hat@@ 12
sunshine 12
bull@@ 12
rou@@ 12
nut 12
Mississippi 12
1979 12
hockey 12
snow@@ 12
seal 12
VA 12
heading 12
River 12
eze 12
Bor@@ 12
chick@@ 12
ather@@ 12
azz@@ 12
Clint 12
enstein 12
host@@ 12
3000 12
ebo 12
pit 12
victims 12
dd@@ 12
Michelle 12
Sharon 12
oked 12
carried 12
county 12
sizing 12
Happ@@ 12
Ü 12
phy@@ 12
sailor 12
tal 12
cage 12
dent 12
comb@@ 12
dil@@ 12
Note 12
72 12
replaced 12
pil@@ 12
onic@@ 12
lett 12
Joh@@ 12
cassette 12
Wiki@@ 12
ribs 12
weighs 12
Diamond 12
upcoming 12
prentice 12
mum@@ 12
teaching 12
low@@ 12
ising 12
accid@@ 12
loaded 12
consum@@ 12
Indi@@ 12
Classic 12
Ass@@ 12
Brady 12
spaces 12
Yellow@@ 12
79 12
Olsen 12
repe@@ 12
published 12
Wal-Mart 12
insight 12
southern 12
aring 12
opol@@ 12
angers 12
astic 12
lawn 12
Ma 12
vity 12
locks 12
syndrome 12
Shor@@ 12
royal 12
charts 12
sadd@@ 12
impact 12
wisdom 12
cane 12
rol@@ 12
battery 12
Sch@@ 12
Vanessa 12
pregn@@ 12
eption 12
premiere 12
inging 12
avoided 12
Care 12
filmed 12
Singer 12
circles 12
Kirk 12
Ms. 12
ounding 12
universe 12
refre@@ 12
amin 12
raz@@ 12
Lake 12
profit 12
pred@@ 12
12th 12
gloves 12
eries 12
suspen@@ 12
manual 12
acking 12
Bull@@ 12
needy 12
Cook 12
treasure 12
Easter 12
Bin 12
optimistic 12
mud 12
raped 12
quarters 12
sho@@ 12
Sci@@ 12
devoted 12
Stan 12
Swit@@ 12
species 12
ellows 12
sequence 12
Whe@@ 12
skirts 12
packed 12
Hong 12
44@@ 12
Clay 12
seats 12
reward 12
represent 12
han@@ 12
customer 12
closes 12
certificate 12
94 12
stant 12
Youn@@ 12
unite 12
illness 12
tuition 12
comb 12
posing 12
fication 12
Lincoln 12
keeper 12
quietly 12
frequent 12
dence 12
Heat 12
debt 12
session 12
whipped 12
Chang@@ 12
conscience 12
Count 12
overwhelming 12
objec@@ 12
directory 12
visu@@ 12
resort 12
six@@ 12
priorities 12
conditional 12
respon@@ 12
shares 12
gaining 12
indication 12
continually 12
approached 12
satisfying 12
outgoing 12
celebrate 12
lasting 12
mistress 12
associated 12
homosexuality 12
youthful 12
beliefs 12
attorney 12
smiled 12
objects 12
boundaries 12
unmarried 12
ultimately 12
committing 12
substance 12
suffered 12
Often 12
population 12
ient 12
requested 12
Recently 12
subsequently 12
exceptionally 12
incarcer@@ 12
sufficiently 12
tasks 12
terrific 12
lacks 12
certainty 12
convenience 12
Disc@@ 12
whereas 12
occurrence 12
bets 11
8.@@ 11
Winter 11
lish@@ 11
Spec@@ 11
flags 11
ien 11
Petty 11
Chic@@ 11
chan 11
Jazz 11
radi@@ 11
ander@@ 11
rison 11
produces 11
1/@@ 11
sidy 11
dow@@ 11
pod@@ 11
Spi@@ 11
Junior 11
pass@@ 11
ate-@@ 11
ular 11
dean 11
ram 11
Lam@@ 11
pud@@ 11
aj 11
gt 11
Detroit 11
criminal 11
Return 11
Upon 11
dh@@ 11
Na@@ 11
ii 11
CD@@ 11
Games 11
anth@@ 11
Matthew 11
shocking 11
1999 11
MB 11
dive 11
alth 11
remark 11
ert 11
Unit 11
midnight 11
55@@ 11
Fresh 11
ros@@ 11
dot@@ 11
gan 11
Bom@@ 11
` 11
tam@@ 11
melody 11
pursued 11
Raymond 11
Magn@@ 11
pump@@ 11
77@@ 11
ere@@ 11
pastor 11
oks 11
Kings 11
capital 11
owell 11
trade 11
aza 11
ahs 11
tz 11
1989 11
discourage 11
formed 11
prostitution 11
definite 11
put@@ 11
zi 11
ladi@@ 11
Ble@@ 11
ONLINE 11
eme 11
feathers 11
view@@ 11
cups 11
sym@@ 11
Del@@ 11
eved 11
6.@@ 11
ao 11
rides 11
drunken 11
novel@@ 11
fried 11
1975 11
teen@@ 11
Team 11
vel 11
Dim@@ 11
fut@@ 11
ky@@ 11
sab@@ 11
Fine 11
artwork 11
broad@@ 11
flight 11
Main 11
maj@@ 11
shaking 11
centr@@ 11
Bollywood 11
stimul@@ 11
37 11
survivors 11
tribute 11
franc@@ 11
nearby 11
surround 11
tr 11
retirement 11
athing 11
contestants 11
oul@@ 11
basement 11
Phar@@ 11
Police 11
HD 11
alongside 11
boards 11
fus@@ 11
road@@ 11
Poor 11
Hitler 11
ami@@ 11
fant@@ 11
Experi@@ 11
McGu@@ 11
Special 11
e-m@@ 11
disappointment 11
membership 11
Rogers 11
icker 11
Kristi@@ 11
arti@@ 11
cha@@ 11
Dai@@ 11
Gh@@ 11
Eur@@ 11
Kenn@@ 11
Bee 11
speaker 11
route 11
cries 11
sob@@ 11
ophone 11
opened 11
stina 11
encies 11
aire 11
Jr 11
boarding 11
slo@@ 11
ern 11
ordered 11
Wine 11
spectacular 11
probl@@ 11
Dee 11
mai@@ 11
Mick 11
Sag@@ 11
dram@@ 11
lightly 11
hats 11
connections 11
Kansas 11
termin@@ 11
aste 11
upper 11
ASE@@ 11
act@@ 11
Giants 11
pickup 11
wed@@ 11
illian 11
atters 11
half@@ 11
gene 11
Moses 11
Noah 11
bou@@ 11
oper 11
Valley 11
oft 11
Ra@@ 11
Din@@ 11
Nicholas 11
captain 11
Pill@@ 11
Garden 11
jersey 11
brick 11
atter 11
Playing 11
balloon 11
Kin@@ 11
ladder 11
dreamed 11
mission 11
lia 11
Le 11
Key@@ 11
charges 11
tan@@ 11
insisted 11
del 11
39@@ 11
harmon@@ 11
gambling 11
Beckham 11
Wonder@@ 11
Hob@@ 11
sul@@ 11
anner 11
farther 11
lem@@ 11
beautifully 11
Penny 11
Toni 11
trapped 11
sta@@ 11
filed 11
ounge 11
jockey 11
zy@@ 11
grow@@ 11
army 11
tained 11
daugh@@ 11
Learning 11
Company 11
iles 11
ucked 11
bloc@@ 11
garlic 11
water@@ 11
Butter@@ 11
natur@@ 11
smoked 11
anas 11
slot 11
scenario 11
lighting 11
Ag@@ 11
respec@@ 11
eal 11
arily 11
yo@@ 11
th-@@ 11
subscription 11
ousness 11
neighb@@ 11
nat@@ 11
go-@@ 11
weapons 11
indul@@ 11
Arabic 11
disappear 11
Cindy 11
Hero 11
Double 11
02 11
Dru@@ 11
Roo@@ 11
second@@ 11
shouted 11
resources 11
notch 11
amounts 11
politics 11
trophy 11
covers 11
forest 11
skill 11
electr@@ 11
promised 11
pep@@ 11
anti-@@ 11
Private 11
ading 11
ghtly 11
cocaine 11
Sony 11
Compl@@ 11
Rangers 11
Er@@ 11
torture 11
trap 11
Toy@@ 11
rope 11
Aguil@@ 11
110 11
terminate 11
Flo@@ 11
abbrevi@@ 11
crum@@ 11
enced 11
illu@@ 11
zh@@ 11
fron@@ 11
orous 11
singular 11
Wit@@ 11
las@@ 11
Drake 11
originated 11
explaining 11
ship@@ 11
backs 11
timer 11
microphone 11
ests 11
Mile 11
anch@@ 11
Francisco 11
staff 11
impres@@ 11
wich 11
washing 11
virtual 11
accepts 11
dumping 11
GM@@ 11
resemblance 11
mat 11
Christians 11
Africa 11
rising 11
threatened 11
Shane 11
14-@@ 11
deri@@ 11
tives 11
stim@@ 11
estimate 11
stum@@ 11
experi@@ 11
Atlanta 11
bott@@ 11
Donald 11
child@@ 11
lun@@ 11
e_@@ 11
outdoor 11
selections 11
communic@@ 11
fare 11
Beyond 11
outdated 11
domestic 11
motto 11
strictly 11
relief 11
slender 11
considers 11
oblig@@ 11
urges 11
hatred 11
reconcile 11
reserved 11
tem@@ 11
placing 11
conv@@ 11
behaviors 11
applicable 11
disaster 11
grati@@ 11
freely 11
reassure 11
verb@@ 11
burden 11
researching 11
entally 11
Clearly 11
Figure 11
partnership 11
excess 11
consuming 11
abundance 11
improved 11
begun 11
locations 11
closely 11
eag@@ 11
accompanying 11
affirmative 11
eighth 11
Intro@@ 11
O'Brien 10
mel 10
HBO 10
lec 10
Knights 10
Rice 10
emb@@ 10
patrick 10
rocky 10
Professor 10
Mak@@ 10
Wings 10
oku 10
oy 10
lag@@ 10
eny 10
aster@@ 10
reha@@ 10
Action 10
Oregon 10
darkness 10
winners 10
ing/@@ 10
eng 10
eph@@ 10
21st 10
frankly 10
yi 10
excer@@ 10
08 10
dition 10
– 10
oping 10
combined 10
entino 10
ev 10
Ca@@ 10
sig@@ 10
flexible 10
sem@@ 10
commentary 10
arrange 10
Ventura 10
operator 10
Harbor 10
knife 10
Harrison 10
rad@@ 10
distor@@ 10
1,@@ 10
ku 10
nn 10
Jay@@ 10
ince 10
Probl@@ 10
sher@@ 10
categories 10
musicals 10
nest 10
69@@ 10
dwar@@ 10
100.@@ 10
document 10
VENT@@ 10
arri@@ 10
desk 10
noti@@ 10
ironic 10
Criminal 10
1991 10
jah 10
ials 10
Ner@@ 10
Kim@@ 10
Arms 10
favor@@ 10
ru 10
:30 10
Evan 10
drawing 10
Albert 10
recomm@@ 10
utes 10
utter 10
Hell@@ 10
esday 10
kill@@ 10
Simmons 10
eson 10
alter@@ 10
expres@@ 10
sheets 10
stan 10
Phil@@ 10
Cab@@ 10
Dawn 10
comeback 10
scripted 10
jan 10
Ton@@ 10
99.@@ 10
OS@@ 10
brands 10
guests 10
sian 10
subjects 10
trace 10
slipped 10
freestyle 10
shades 10
pointed 10
contacts 10
98@@ 10
club@@ 10
novels 10
sers 10
ssi@@ 10
Nancy 10
aya 10
Con 10
ician 10
beans 10
23rd 10
affects 10
kat 10
backup 10
urs@@ 10
dot 10
tis@@ 10
kish 10
chemist 10
plan@@ 10
burns 10
releases 10
ints 10
tails 10
chi 10
1984 10
thri@@ 10
Ralph 10
Mys@@ 10
ogy 10
origin 10
67 10
enix 10
Babe 10
holder 10
measured 10
haz@@ 10
B. 10
pose@@ 10
Record 10
CD-@@ 10
ninth 10
times@@ 10
u-@@ 10
Seg@@ 10
Doug 10
Diaz 10
Rouge 10
rocket 10
Let@@ 10
Price 10
Ted 10
strongest 10
800-@@ 10
eur@@ 10
Belle 10
handling 10
assignment 10
G. 10
retro@@ 10
hence 10
ripped 10
castle 10
miss@@ 10
skate 10
1971 10
Bennett 10
ede 10
vacuum 10
es-@@ 10
shotgun 10
violin 10
prizes 10
wick@@ 10
west@@ 10
National 10
cod@@ 10
workout 10
asia 10
screen@@ 10
dinosaur 10
rational 10
fam@@ 10
Brand 10
contestant 10
mosqu@@ 10
Song@@ 10
afia 10
Shirley 10
charged 10
exceptions 10
Village 10
coma 10
doc@@ 10
Glass 10
F. 10
Molly 10
port@@ 10
cau@@ 10
cles 10
unts 10
votes 10
victori@@ 10
Lun@@ 10
mercy 10
egg@@ 10
dragged 10
studied 10
Normally 10
1996 10
bler 10
halfway 10
350 10
Volume 10
latter 10
Circus 10
Well@@ 10
29@@ 10
tho@@ 10
Barker 10
bricks 10
Mayer 10
minus 10
bot 10
anners 10
Warren 10
hie 10
feeding 10
1977 10
tured 10
1987 10
jackets 10
mentioning 10
conventional 10
levels 10
Julie 10
Inc@@ 10
Lawrence 10
Hang@@ 10
Ches@@ 10
perpet@@ 10
ott 10
elaborate 10
bli@@ 10
Ber@@ 10
phon@@ 10
bots 10
escort 10
inten@@ 10
Denny 10
rier 10
physi@@ 10
intrigu@@ 10
Orchestra 10
debate 10
dark@@ 10
spill 10
68 10
ario 10
make@@ 10
Domin@@ 10
150 10
exercises 10
tales 10
Spo@@ 10
dynam@@ 10
eler 10
elli 10
er-in-law 10
fting 10
throw@@ 10
asion 10
choir 10
defen@@ 10
laptop 10
ango 10
Said 10
Mart 10
ized 10
Roth 10
denial 10
hopeful 10
grades 10
phenomen@@ 10
nightly 10
Heath 10
danger 10
confi@@ 10
uniform 10
Eng@@ 10
murderer 10
Cliff 10
Meth@@ 10
tors 10
peers 10
vit@@ 10
Laz@@ 10
Cherry 10
Control 10
lie@@ 10
professionals 10
Daniels 10
intro@@ 10
Rat@@ 10
arranged 10
idal 10
brief@@ 10
D-@@ 10
wait@@ 10
Now@@ 10
Express 10
inas 10
makers 10
smallest 10
prepare 10
Net 10
aci@@ 10
logo 10
eliminated 10
understand@@ 10
Woody 10
Ses@@ 10
Fal@@ 10
ext@@ 10
threaten 10
isi@@ 10
mly 10
noon 10
agon 10
William 10
inform@@ 10
Pa@@ 10
boost 10
abandoned 10
flag 10
Quick@@ 10
gap 10
labels 10
film@@ 10
appoint 10
officially 10
bic@@ 10
ava 10
European 10
tenth 10
o'clock 10
fund 10
1978 10
sudden 10
ato 10
Wo@@ 10
sses 10
chan@@ 10
grams 10
phase 10
grave 10
homes 10
Gold@@ 10
anced 10
nonetheless 10
tum 10
Food 10
trend 10
describing 10
troubles 10
High@@ 10
twel@@ 10
beneath 10
ignored 10
covering 10
stro@@ 10
ruins 10
stepping 10
President 10
McDonald 10
perception 10
County 10
memorable 10
gho@@ 10
adoption 10
punish 10
victory 10
adise 10
desperately 10
curves 10
trac@@ 10
18-@@ 10
seem@@ 10
pattern 10
accounts 10
Spain 10
doubtful 10
Hand@@ 10
ankle 10
established 10
Diego 10
altern@@ 10
consult 10
unic@@ 10
ressing 10
unwanted 10
environment 10
inity 10
sincer@@ 10
alizing 10
motivation 10
judgment 10
Cou@@ 10
expressions 10
conce@@ 10
loyalty 10
peak 10
descent 10
cultural 10
extravag@@ 10
trusts 10
securities 10
settling 10
interaction 10
maternal 10
inqui@@ 10
capacity 10
confid@@ 10
HIV 10
Rican 10
defined 10
conclude 10
occur@@ 10
relin@@ 10
socially 10
probable 10
elect 10
formerly 10
arding 10
portrays 10
incere 10
consumed 10
favored 10
temperature 10
manif@@ 10
encountered 10
declined 10
indicates 10
Navi@@ 10
probability 10
peculiar 10
enable 10
photographs 10
admission 9
anism 9
ning@@ 9
Miranda 9
rever@@ 9
Marvel 9
Goodman 9
snail 9
Edition 9
34@@ 9
edi@@ 9
psychological 9
Single 9
illegally 9
grows 9
Bam@@ 9
og 9
ancer 9
eses 9
sper@@ 9
96 9
28@@ 9
camp@@ 9
dock 9
Wis@@ 9
memori@@ 9
Nelson 9
dol@@ 9
telec@@ 9
east@@ 9
broadcasting 9
logic 9
Siri@@ 9
UA@@ 9
condi@@ 9
Summer@@ 9
mang@@ 9
direc@@ 9
Wall@@ 9
stain@@ 9
Works 9
MB@@ 9
illed 9
wig 9
Major 9
squad 9
Lil@@ 9
puzzle 9
Stars 9
quotes 9
awa 9
su 9
20-@@ 9
blockbuster 9
esty 9
Rodney 9
unavailable 9
flowing 9
ides 9
pom@@ 9
Def@@ 9
boro 9
Band@@ 9
rental 9
esc@@ 9
Boat 9
Behind 9
instantly 9
aq 9
Machine 9
aping 9
ickness 9
warming 9
Lindsey 9
m-@@ 9
laser 9
tar 9
WB 9
journey 9
esters 9
widely 9
Ray@@ 9
tica 9
laugh@@ 9
mice 9
ayl@@ 9
Samantha 9
aff@@ 9
atis@@ 9
ore@@ 9
indicated 9
succeeded 9
ees 9
complex@@ 9
foods 9
searches 9
ayo 9
banks 9
Bright 9
flame 9
so-called 9
outfits 9
expec@@ 9
81 9
Hart@@ 9
Fam@@ 9
Circle 9
dialogue 9
prayer 9
infected 9
thrilled 9
amer 9
scored 9
ounces 9
phony 9
finest 9
buried 9
genetic 9
formers 9
oni 9
earth@@ 9
albu@@ 9
93 9
wreck 9
sunset 9
Gib@@ 9
Ful@@ 9
Morning 9
and-@@ 9
Techn@@ 9
small@@ 9
ribbon 9
crow@@ 9
beaches 9
fet@@ 9
sco 9
kidnapped 9
mailing 9
hail 9
gallery 9
vulnerable 9
ov 9
carpet 9
opers 9
skeleton 9
o'@@ 9
Evans 9
unit 9
relieved 9
coaster 9
eled 9
epi@@ 9
dest@@ 9
esh@@ 9
deer 9
tragic 9
hawk 9
Case 9
Kra@@ 9
hem 9
offic@@ 9
wires 9
Tab@@ 9
yers 9
sec 9
machines 9
Head@@ 9
roy 9
turkey 9
Brandon 9
lis@@ 9
Buck 9
furious 9
commer@@ 9
Bot@@ 9
kh@@ 9
spirits 9
acs 9
diving 9
gear 9
roads 9
Public 9
venue 9
dough 9
modest 9
rum 9
vein 9
urt 9
Dunn 9
Farm 9
Tim@@ 9
ito 9
concentrating 9
filling 9
aught 9
photo@@ 9
penny 9
aer@@ 9
Martina 9
McBride 9
cleaned 9
ech@@ 9
Blue@@ 9
etti 9
bid@@ 9
humili@@ 9
ahu 9
H. 9
stan@@ 9
rolled 9
sentences 9
maintenance 9
mortal 9
kness 9
justify 9
ject 9
turing 9
Sa@@ 9
PA 9
♥ 9
Get@@ 9
plu@@ 9
Perry 9
microwave 9
Born 9
Bog@@ 9
eu@@ 9
utterly 9
Diam@@ 9
Job 9
asters 9
Haley 9
kling 9
tech 9
revi@@ 9
translation 9
marsh@@ 9
Maggie 9
voc@@ 9
Health 9
gates 9
Theory 9
Film 9
mann 9
123 9
Nike 9
moc@@ 9
downhill 9
Colin 9
Laura 9
urine 9
alo 9
sample 9
Andrew 9
Storm 9
Ep@@ 9
Lach@@ 9
83 9
akers 9
dier 9
trag@@ 9
Plat@@ 9
Thunder 9
destroyed 9
Gill 9
Below 9
Ali 9
Chev@@ 9
degrees 9
fascinating 9
paci@@ 9
proceeded 9
stit@@ 9
juvenile 9
-off 9
Pictures 9
Eden 9
bel 9
Wind@@ 9
jar 9
frozen 9
pitch 9
Ker@@ 9
Drama 9
WWF 9
design 9
60s 9
Bour@@ 9
Brow@@ 9
Trump 9
04 9
doub@@ 9
tionist 9
qualify 9
rying 9
believ@@ 9
traits 9
CNN 9
bent 9
checks 9
off-@@ 9
lon 9
icity 9
Service 9
Chester 9
flu 9
eyeb@@ 9
Ger@@ 9
stunning 9
evaluate 9
enta 9
20th 9
mill@@ 9
hypo@@ 9
estion 9
Hawaii 9
itan 9
Cro@@ 9
Avenue 9
Hei@@ 9
grabbing 9
chickens 9
5,@@ 9
fall@@ 9
bullets 9
ppo 9
tedly 9
ros 9
adopt 9
09 9
recor@@ 9
Marc 9
Alan 9
shru@@ 9
Kumar 9
Castle 9
popped 9
ached 9
predators 9
mixes 9
visible 9
sole 9
nursing 9
arcade 9
deep@@ 9
Race 9
App@@ 9
strai@@ 9
Sixth 9
Films 9
Ds 9
defensive 9
Strike 9
fit@@ 9
och@@ 9
grip 9
Corin@@ 9
Bauer 9
horns 9
gru@@ 9
Mercury 9
surface 9
Wallace 9
Ig@@ 9
Philli@@ 9
dered 9
Astr@@ 9
tually 9
trips 9
squeeze 9
Lynn 9
dn 9
Michigan 9
5.5 9
resolved 9
entity 9
Underground 9
Scr@@ 9
cheers 9
graduate 9
agh@@ 9
platinum 9
Nik@@ 9
graduated 9
ante 9
shorts 9
altogether 9
confronted 9
differ 9
blown 9
aled 9
pumping 9
stopping 9
biased 9
diner 9
moni@@ 9
angar@@ 9
70@@ 9
cracking 9
psycho@@ 9
Planet 9
Hus@@ 9
habit@@ 9
credible 9
agreeing 9
updated 9
digits 9
dim 9
ill-@@ 9
Utah 9
demons 9
2-3 9
proved 9
Casino 9
visits 9
left@@ 9
Franklin 9
putt 9
silk 9
Sar@@ 9
fence 9
potentially 9
Mut@@ 9
emergency 9
extended 9
Fast 9
guidance 9
reminded 9
itant 9
refrigerator 9
liquor 9
chains 9
optim@@ 9
commonly 9
circum@@ 9
intent 9
10-@@ 9
Six@@ 9
applied 9
Short 9
tern@@ 9
uti@@ 9
matching 9
ethical 9
lessly 9
disclose 9
tains 9
psychiatrist 9
patern@@ 9
criticize 9
devastated 9
recipe 9
crude 9
suffering 9
abroad 9
compassion 9
exper@@ 9
approval 9
uneasy 9
tended 9
narrow 9
Exam@@ 9
ements 9
fears 9
atro@@ 9
objective 9
dense 9
implies 9
inhi@@ 9
itor 9
itation 9
pending 9
materi@@ 9
poss@@ 9
injury 9
avoiding 9
elet 9
sentiment 9
quicker 9
Fifteen 9
…@@ 9
alcoholic 9
abusing 9
furniture 9
senses 9
event@@ 9
embrace 9
discipline 9
regain 9
uous 9
intellig@@ 9
artificial 9
deed 9
experiment 9
payment 9
eliminate 9
awaiting 9
outstanding 9
achieved 9
vicinity 9
intell@@ 9
cycle 9
identification 9
enormous 9
lengthy 9
titude 9
utilized 9
extraordinary 9
accurately 9
acquiring 9
encing 9
elements 9
Australian 9
awak@@ 9
encounters 9
victorious 9
unbelievable 9
automobile 9
ageous 9
demonstrates 9
remainder 9
suggests 9
retrieve 9
Thus 9
notion 9
Bang@@ 8
avy 8
Brazil 8
Queens 8
gish 8
Vol 8
omeo 8
patch 8
ise@@ 8
Syl@@ 8
a/@@ 8
absorbed 8
Basic 8
credi@@ 8
Trent 8
eover 8
Mun@@ 8
Memphis 8
bak@@ 8
eta 8
lor@@ 8
casts 8
Ric@@ 8
ues 8
vow@@ 8
famil@@ 8
practical 8
shu@@ 8
Zi@@ 8
30-@@ 8
kh 8
Rule 8
gen 8
alpha@@ 8
reminiscent 8
1967 8
omo 8
chunk 8
marching 8
Judy 8
scheduled 8
entious 8
espec@@ 8
Word 8
Juli@@ 8
Clar@@ 8
eff 8
abi 8
Tam@@ 8
Nearly 8
Him@@ 8
XI 8
Moo@@ 8
elite 8
I. 8
scape 8
hou@@ 8
mani@@ 8
Mario 8
pins 8
phil@@ 8
Wyn@@ 8
1997 8
where@@ 8
212 8
Grammy 8
Explorer 8
eter 8
f-@@ 8
shadows 8
oxy@@ 8
Aut@@ 8
GB 8
import@@ 8
foster 8
sette 8
aman 8
taxes 8
17th 8
Actor 8
ul 8
offspring 8
chart 8
expose 8
inated 8
Pacific 8
Modern 8
antom 8
strips 8
overseas 8
parl@@ 8
destruction 8
rick 8
freezing 8
56@@ 8
Betty 8
Ram 8
Vaughn 8
ened 8
needing 8
Made 8
roy@@ 8
Cowboys 8
cross@@ 8
collecting 8
drain 8
CO 8
sadness 8
amps 8
cells 8
baked 8
bells 8
abortion 8
blacks 8
Cable 8
Coke 8
pointing 8
xed 8
blur@@ 8
48 8
winds 8
surprisingly 8
PG 8
98.@@ 8
Stro@@ 8
Yam@@ 8
thum@@ 8
Zoo 8
Battle 8
kel 8
Fly@@ 8
Tex@@ 8
fon@@ 8
Different 8
Chronic@@ 8
nephew 8
mud@@ 8
riot 8
Tiffany 8
hunter 8
Shell 8
Hag@@ 8
counted 8
scru@@ 8
yle 8
azza 8
mines 8
sway 8
Rep@@ 8
Dat@@ 8
0-@@ 8
homeless 8
Barn@@ 8
shov@@ 8
www@@ 8
11.@@ 8
corners 8
samples 8
Suddenly 8
19th 8
Coy@@ 8
Cotton 8
contests 8
Speed 8
Animal 8
got@@ 8
technical 8
Sandra 8
66@@ 8
Mach@@ 8
escal@@ 8
78@@ 8
dan 8
franchise 8
drank 8
translate 8
drowning 8
supermarket 8
Ky@@ 8
L.A. 8
tioning 8
vague 8
equipment 8
fect 8
locally 8
Dorothy 8
Nem@@ 8
Linda 8
backyard 8
prop@@ 8
posedly 8
elt 8
illy 8
sell@@ 8
plic@@ 8
sax@@ 8
drowned 8
bark 8
arre@@ 8
careers 8
annon 8
pardon 8
Kane 8
suic@@ 8
tend@@ 8
gamble 8
shuffle 8
Derek 8
Cand@@ 8
Illinois 8
Rules 8
umped 8
Reno 8
heal@@ 8
fei@@ 8
oning 8
atives 8
tack@@ 8
blow@@ 8
authority 8
cc@@ 8
2.5 8
Highway 8
Bohem@@ 8
rigged 8
killers 8
shly 8
denying 8
outer 8
sville 8
en-@@ 8
aar 8
2008 8
electronics 8
exam 8
figh@@ 8
Syn@@ 8
reaching 8
Jas@@ 8
armor 8
omi 8
oting 8
zen@@ 8
articles 8
Wild@@ 8
provider 8
eth 8
Thi@@ 8
Gothic 8
rum@@ 8
chen 8
light@@ 8
drivers 8
Yan@@ 8
all-@@ 8
arrest 8
edly 8
ell-@@ 8
itt 8
ashing 8
Mob 8
roller 8
responsibilities 8
parade 8
1960s 8
spouses 8
atr@@ 8
erg@@ 8
rescue 8
Ji@@ 8
norm 8
Source 8
Orleans 8
slam 8
Crew 8
1992 8
ka@@ 8
chester 8
industries 8
trick@@ 8
1964 8
e-mails 8
Dick@@ 8
damaged 8
ference 8
unt@@ 8
arine 8
Mean@@ 8
oci@@ 8
appe@@ 8
ther-in-law 8
scales 8
ensive 8
marketing 8
packs 8
twe@@ 8
metaphor 8
rats 8
lau@@ 8
git 8
ickets 8
ush@@ 8
chop@@ 8
tted 8
national 8
Meanwhile 8
Trading 8
Warr@@ 8
ians 8
Newman 8
Susan 8
pits 8
Gol@@ 8
Gross 8
achel@@ 8
biological 8
Grant 8
cent@@ 8
l-@@ 8
collector 8
improvement 8
Sisters 8
Dogs 8
exposed 8
Imp@@ 8
insurance 8
Oy@@ 8
upstairs 8
ch-@@ 8
sword 8
Fid@@ 8
Not@@ 8
Gim@@ 8
enly 8
PN 8
taped 8
Dri@@ 8
SD 8
6:@@ 8
stabbing 8
developing 8
Post 8
tations 8
ecu@@ 8
Napol@@ 8
tial 8
Youth 8
dealers 8
heritage 8
fictional 8
Dev@@ 8
contacted 8
outing 8
strokes 8
Trou@@ 8
clean@@ 8
custom@@ 8
tra@@ 8
escaped 8
bay@@ 8
universal 8
le-@@ 8
antics 8
Nov@@ 8
femin@@ 8
papers 8
ste 8
balloons 8
prin@@ 8
steady 8
pipe 8
Class@@ 8
nal 8
Stuart 8
Bus@@ 8
tain@@ 8
highway 8
rup@@ 8
fu 8
onion 8
Southern 8
bosses 8
lease 8
Supply 8
ord@@ 8
Harold 8
prints 8
Plac@@ 8
steel 8
survived 8
edo 8
kay@@ 8
Gabri@@ 8
kne@@ 8
Produc@@ 8
hears 8
unity 8
auction 8
pause 8
emental 8
exp@@ 8
robin 8
bras 8
500,000 8
Nokia 8
booking 8
Willis 8
Raz@@ 8
block@@ 8
rested 8
encia 8
oma 8
caf@@ 8
Rag@@ 8
faced 8
elephants 8
foll@@ 8
ec 8
sert 8
hy 8
Nashville 8
ballad 8
filter 8
Timber@@ 8
Omar 8
forehead 8
eously 8
Smi@@ 8
packages 8
fascinated 8
fth 8
tening 8
Farrell 8
crystal 8
ova 8
dim@@ 8
scrap@@ 8
King@@ 8
managed 8
cof@@ 8
finger@@ 8
feedback 8
Lightning 8
participants 8
mem@@ 8
modeling 8
safely 8
draw@@ 8
1969 8
bes@@ 8
24th 8
deb@@ 8
tum@@ 8
nostal@@ 8
post-@@ 8
Tin@@ 8
ange 8
Horse 8
extend 8
spor@@ 8
ces 8
preparing 8
forcing 8
alist 8
vintage 8
Iri@@ 8
expired 8
scripts 8
mirrors 8
Hyde 8
sponsor 8
endless 8
asted 8
crack@@ 8
promotion 8
proven 8
multip@@ 8
aths 8
Fle@@ 8
inhal@@ 8
quot@@ 8
40-@@ 8
aud@@ 8
wary 8
dining 8
property 8
suffic@@ 8
Main@@ 8
eary 8
Barnes 8
p.m 8
us-@@ 8
Moon@@ 8
ve-@@ 8
Against 8
skater 8
Owen 8
Online 8
interrup@@ 8
rio 8
grap@@ 8
Need@@ 8
Lennon 8
uma 8
Cele@@ 8
Courtney 8
shaw@@ 8
ploy 8
Tales 8
prol@@ 8
Stre@@ 8
briefly 8
Sai@@ 8
1960 8
ment@@ 8
apers 8
Fair@@ 8
Vit@@ 8
impati@@ 8
aisle 8
Alco@@ 8
Donna 8
on-line 8
convincing 8
Latino 8
Diana 8
dignity 8
operate 8
Ir@@ 8
solving 8
terri@@ 8
classmates 8
sist 8
antic 8
Scient@@ 8
verbal 8
meanwhile 8
expresses 8
handful 8
relates 8
possibilities 8
darker 8
deepest 8
Several 8
controll@@ 8
enthusiasm 8
Ple@@ 8
addressed 8
disagreement 8
texts 8
ration@@ 8
bend 8
attracting 8
pren@@ 8
distr@@ 8
alistic 8
dilemma 8
delay 8
noticeable 8
generous 8
entive 8
engrav@@ 8
struggling 8
exerc@@ 8
classi@@ 8
creates 8
strict 8
old-fashioned 8
promising 8
Eigh@@ 8
fixing 8
respected 8
complications 8
spontaneous 8
discouraged 8
encouraged 8
catches 8
obligation 8
confusion 8
defeat 8
Pamela 8
signi@@ 8
outlook 8
accordingly 8
affected 8
blaming 8
values 8
trimmed 8
efully 8
eived 8
examined 8
gestures 8
visual 8
coer@@ 8
sionally 8
age-@@ 8
Bob@@ 8
teen-@@ 8
emph@@ 8
present@@ 8
three-@@ 8
Entertainment 8
possessing 8
enthusiastic 8
Nin@@ 8
atically 8
imper@@ 8
acknowledge 8
substances 8
identical 8
Ref@@ 8
accompanied 8
appropriately 8
advertisements 8
removing 8
likelihood 8
Natur@@ 8
repaired 8
surroundings 8
traveled 8
harmed 8
Hispanic 8
forth@@ 8
describes 8
extensive 8
Speaking 8
inflic@@ 8
accustomed 8
observing 8
improving 8
foul 8
exhausted 8
compelled 8
tense 8
occurring 8
reiter@@ 8
suggesting 8
duration 8
remarks 8
belongings 8
escap@@ 7
CI 7
radio@@ 7
idays 7
phrases 7
steroids 7
anta 7
festival 7
Gospel 7
rud@@ 7
export 7
Ey@@ 7
Veg@@ 7
Volkswagen 7
Andre 7
Hour 7
technology 7
squar@@ 7
stripes 7
elson 7
choo@@ 7
Matthews 7
heroine 7
litter 7
Gret@@ 7
82 7
runner 7
37@@ 7
Colum@@ 7
GM 7
highlight 7
anticip@@ 7
antha 7
sentenced 7
mixing 7
helmet 7
hunger 7
SP 7
Future 7
NBA 7
Jonathan 7
Fa@@ 7
troy 7
essa 7
pp 7
pressed 7
iter@@ 7
Cad@@ 7
streaming 7
casinos 7
harmony 7
artistic 7
libr@@ 7
Der@@ 7
58 7
Davis 7
ener@@ 7
thes 7
Pilot 7
logged 7
achi 7
Bridge 7
tori@@ 7
Rum@@ 7
ric 7
CAR 7
mic 7
done@@ 7
hyper@@ 7
ter-@@ 7
Garcia 7
33@@ 7
rog@@ 7
acher 7
Mou@@ 7
oi 7
apar@@ 7
digging 7
harbor 7
slight 7
stream@@ 7
hu 7
ground@@ 7
Wood@@ 7
arity 7
eres 7
S-@@ 7
reports 7
rul@@ 7
Above 7
100,000 7
uri@@ 7
5/@@ 7
99@@ 7
yellow@@ 7
Jan 7
cables 7
Jai@@ 7
EDIT@@ 7
enh@@ 7
rets 7
Lan@@ 7
Contr@@ 7
Gray 7
PP 7
Of@@ 7
interviews 7
stern 7
orns 7
2,@@ 7
trees 7
Met 7
cad@@ 7
CM@@ 7
poll 7
gossi@@ 7
reg@@ 7
Percy 7
epis@@ 7
Cleveland 7
pipes 7
Way@@ 7
Alternative 7
tops 7
aja 7
Lob@@ 7
decor@@ 7
Roy@@ 7
parental 7
fins 7
book@@ 7
unpredictable 7
Abbey 7
monsters 7
barn 7
widow 7
fruits 7
fore 7
lesser 7
Oak 7
jum@@ 7
cons 7
Thur@@ 7
Worl@@ 7
inged 7
Ret@@ 7
ERA 7
cial 7
calendar 7
ici@@ 7
meg@@ 7
Montgomery 7
hosted 7
even@@ 7
homemade 7
lier 7
Snow@@ 7
esdays 7
kits 7
das 7
attle 7
Dream@@ 7
etc. 7
corn@@ 7
cut@@ 7
itary 7
glit@@ 7
apest 7
ken@@ 7
poll@@ 7
rescued 7
.-@@ 7
semi-@@ 7
essions 7
Caroline 7
scen@@ 7
Oliver 7
ament 7
liv@@ 7
bla@@ 7
Mum@@ 7
Kni@@ 7
62 7
Gener@@ 7
century 7
lays 7
thr 7
Will@@ 7
iced 7
hart 7
yoga 7
ssa 7
bag@@ 7
speed@@ 7
1:@@ 7
ssed 7
bench 7
oath 7
maine 7
bine 7
tia 7
mill 7
form@@ 7
Mol@@ 7
pollution 7
aki 7
apped 7
guards 7
chec@@ 7
guaranteed 7
Bonnie 7
Tran@@ 7
Saturdays 7
horse@@ 7
seemingly 7
import 7
tag@@ 7
Coach 7
promp@@ 7
bour@@ 7
Tower 7
Field 7
tut@@ 7
ign@@ 7
eme@@ 7
Crystal 7
news@@ 7
pulp 7
exclusively 7
chor@@ 7
survivor 7
Electr@@ 7
rebel 7
vig@@ 7
singly 7
Yours 7
Chin@@ 7
crown 7
eck@@ 7
sh-@@ 7
47@@ 7
ple-@@ 7
mistre@@ 7
Tit@@ 7
xton 7
electricity 7
oppy 7
87 7
19.@@ 7
crashed 7
asis 7
appl@@ 7
rad 7
pup@@ 7
Lev@@ 7
ycle 7
Gyp@@ 7
sheer 7
spiritual 7
23.@@ 7
4.1 7
aur 7
trafficking 7
alan 7
nell 7
Isab@@ 7
bol@@ 7
Telephone 7
Wid@@ 7
Ved@@ 7
Kath@@ 7
bread@@ 7
Bravo 7
fts 7
Christ@@ 7
Lati@@ 7
funk 7
anthem 7
Donn@@ 7
inspired 7
20.@@ 7
2:@@ 7
ido 7
qual@@ 7
imagin@@ 7
isite 7
1,000 7
stat@@ 7
stand@@ 7
Buckley 7
esti@@ 7
vesti@@ 7
alarm 7
safer 7
Mar 7
cord 7
dious 7
rai 7
spike 7
ron@@ 7
ght-@@ 7
Ms 7
poly@@ 7
assie 7
Bru@@ 7
ellow@@ 7
Harvey 7
arez 7
kar 7
orchestra 7
troubled 7
Science 7
hay 7
nam 7
operas 7
hori@@ 7
Andrews 7
Religion 7
Max@@ 7
wear@@ 7
Cheney 7
reb@@ 7
warned 7
ges 7
chio 7
pedal 7
protest 7
Anne 7
Bean 7
co-workers 7
Twelve 7
shad@@ 7
Plan@@ 7
trailers 7
static 7
Son@@ 7
oped 7
Miy@@ 7
university 7
uary 7
courts 7
7/@@ 7
Won@@ 7
Lot@@ 7
dg@@ 7
Ran@@ 7
Micha@@ 7
onions 7
oves 7
invol@@ 7
api@@ 7
ackers 7
mings 7
Ku@@ 7
elev@@ 7
Total 7
Lay 7
Katrina 7
spark 7
salesman 7
zie 7
Rome 7
shouting 7
keep@@ 7
idity 7
fax 7
justice 7
Pierce 7
ghtful 7
Genesis 7
weary 7
backing 7
percussion 7
licence 7
boxing 7
fair@@ 7
Whit@@ 7
Bou@@ 7
entals 7
Owens 7
sign@@ 7
orious 7
beaten 7
wheel@@ 7
Sky@@ 7
copy@@ 7
nom@@ 7
eving 7
History 7
energetic 7
Books 7
barg@@ 7
Choice 7
flesh 7
M-@@ 7
Claire 7
Starting 7
Hill@@ 7
fier 7
eb 7
fing 7
ingen@@ 7
ler@@ 7
Dakota 7
authors 7
Strait 7
ski@@ 7
och 7
vice-@@ 7
Todd 7
Excell@@ 7
lend 7
Shadow 7
50s 7
wast@@ 7
Lions 7
ece 7
forces 7
Hudson 7
eces 7
cap 7
full-time 7
sent@@ 7
ake@@ 7
blin@@ 7
ined 7
McC@@ 7
tally 7
-F@@ 7
Digital 7
ility 7
convert 7
weighed 7
live-@@ 7
tox@@ 7
Mo 7
ks@@ 7
transi@@ 7
Mission 7
revealing 7
tomato 7
ential 7
weaker 7
Silver@@ 7
or-@@ 7
Cle@@ 7
ice-@@ 7
puppet 7
speci@@ 7
Style 7
capture 7
Four@@ 7
Seattle 7
Nicholson 7
guarantees 7
observation 7
onymous 7
Morgan 7
lob@@ 7
dip 7
Griffin 7
FA 7
lyn 7
distributed 7
bio@@ 7
2.1 7
agons 7
Laden 7
leaf 7
newspapers 7
rin@@ 7
teaches 7
kal@@ 7
mar 7
battles 7
anos 7
overwhelmed 7
vocabulary 7
olf 7
tled 7
pots 7
forbidden 7
shman 7
arch 7
smoo@@ 7
overnight 7
shapes 7
thro@@ 7
contradic@@ 7
Mrs 7
bumper 7
thick@@ 7
eger 7
foot@@ 7
cise 7
wai@@ 7
spect 7
fabricated 7
suit@@ 7
Montana 7
statis@@ 7
adjust 7
bassist 7
breeze 7
accusing 7
nan@@ 7
Helen 7
arian 7
Doctor 7
consequence 7
oldest 7
alty 7
erect 7
har 7
de-@@ 7
subway 7
beauti@@ 7
U.S@@ 7
Model 7
Kei@@ 7
liver 7
supporting 7
instructed 7
appeti@@ 7
Columbus 7
Parents 7
mish@@ 7
officers 7
ghter 7
atmosphere 7
1955 7
Macy 7
drun@@ 7
Hun 7
ongoing 7
Mack 7
rifle 7
percentage 7
Cafe 7
amen 7
applications 7
aga 7
tention 7
celebration 7
slice 7
Iran 7
Hanson 7
operating 7
Diane 7
Jensen 7
travels 7
African-American 7
cock@@ 7
Einstein 7
daytime 7
exhibit 7
confrontation 7
frustration 7
freshman 7
confessed 7
influences 7
Virginia 7
22-@@ 7
Sti@@ 7
fered 7
Catholic 7
strategy 7
videotape 7
protecting 7
plead 7
Psych@@ 7
Danny 7
verses 7
obic 7
Match 7
spells 7
curi@@ 7
alter 7
umps 7
lone 7
conclusions 7
weights 7
inexperienced 7
amper 7
behavi@@ 7
USS 7
divine 7
ancies 7
distress 7
proving 7
discour@@ 7
dishes 7
sacred 7
sided 7
sporting 7
seldom 7
nered 7
investment 7
handles 7
outright 7
conscious 7
Pass 7
packing 7
alert 7
atched 7
struggle 7
inion 7
15th 7
8.5 7
approved 7
drastic 7
glo@@ 7
isms 7
entially 7
moderately 7
edness 7
workplace 7
attachment 7
Ya@@ 7
realization 7
bears 7
scent 7
onous 7
bond@@ 7
sessions 7
settled 7
ilies 7
instances 7
appreh@@ 7
dominate 7
earning 7
alization 7
Church 7
competent 7
dispo@@ 7
prevents 7
fulness 7
sati@@ 7
prime 7
complic@@ 7
ampli@@ 7
apologized 7
convey 7
contained 7
Practice 7
long-term 7
sensible 7
contrary 7
openly 7
Asi@@ 7
displayed 7
locating 7
Store 7
depart 7
ulated 7
Muslim 7
appreciation 7
tile 7
urely 7
surrounding 7
requirements 7
perished 7
deciding 7
indicating 7
resides 7
essential 7
Nor 7
inquiries 7
open-@@ 7
eccentric 7
establishment 7
recommendation 7
well-known 7
challenges 7
Occa@@ 7
appeals 7
assessment 7
enthusi@@ 7
alternate 7
arrival 7
intensely 7
icate 7
subsequent 7
demeanor 7
functions 7
Thir@@ 7
improper 7
sity 7
iors 7
lev@@ 6
elbow 6
Il@@ 6
republic@@ 6
chapter 6
walk@@ 6
beam 6
triple 6
Got@@ 6
climbed 6
paced 6
fol@@ 6
cros@@ 6
inal 6
hiatus 6
exploded 6
ucci 6
guar@@ 6
layout 6
Ave. 6
eo 6
metaph@@ 6
psychology 6
Yo@@ 6
pand@@ 6
F-@@ 6
Kil@@ 6
introduction 6
apy 6
.C. 6
buses 6
Carol 6
PBS 6
backed 6
eup 6
hostage 6
78 6
ota 6
Bach@@ 6
appa 6
Beck 6
Yor@@ 6
bicycle 6
Beth 6
Bernie 6
creek 6
bre 6
3/4 6
Steel 6
rolls 6
Spir@@ 6
Morris 6
is-@@ 6
Are@@ 6
stiff 6
ssing 6
wre@@ 6
humanity 6
1963 6
carto@@ 6
trol@@ 6
aik@@ 6
ius 6
tivo 6
cm 6
defeated 6
Yok@@ 6
prev@@ 6
hai 6
SA 6
shaw 6
umi 6
auto@@ 6
FS 6
whales 6
onal 6
suspended 6
materials 6
close@@ 6
1995 6
N. 6
1-2 6
discovering 6
inga 6
bah 6
stab@@ 6
archi@@ 6
86 6
Mathe@@ 6
kindergarten 6
soc@@ 6
Shoo@@ 6
fty 6
faction 6
Actress 6
Tob@@ 6
elementary 6
9,@@ 6
Cust@@ 6
mandy 6
hoff 6
se-@@ 6
adopted 6
clay 6
abeth 6
mob@@ 6
Dead@@ 6
Dawson 6
Burns 6
drug@@ 6
hud@@ 6
ox@@ 6
07 6
chang@@ 6
publish 6
lu 6
chap@@ 6
H-@@ 6
promoted 6
c. 6
Fifth 6
so-@@ 6
Tax@@ 6
Pel@@ 6
sop@@ 6
partially 6
agi 6
Empire 6
Indians 6
Mud@@ 6
brass 6
criminals 6
centric 6
Fin@@ 6
Spielberg 6
plots 6
Quest 6
ovich 6
Culture 6
gent 6
phen@@ 6
havoc 6
shr@@ 6
zan 6
Oper@@ 6
Lamb 6
persistent 6
ilight 6
cluding 6
mot@@ 6
chronic@@ 6
f. 6
creature 6
archives 6
command 6
court@@ 6
itating 6
199@@ 6
resses 6
burgh 6
elers 6
ablo 6
Nina 6
stead 6
kings 6
Hamilton 6
ellers 6
Kap@@ 6
oor 6
simpler 6
affe 6
expand 6
recipes 6
McLean 6
professionally 6
scout 6
tablo@@ 6
desert 6
adop@@ 6
Sak@@ 6
stew@@ 6
accidental 6
anes 6
disappeared 6
Travel 6
Grac@@ 6
programm@@ 6
trail 6
Ann@@ 6
surf 6
Hogan 6
Hercules 6
PAC 6
sandwiches 6
tap@@ 6
motor 6
ar-@@ 6
ashi 6
nation@@ 6
3/@@ 6
Hed@@ 6
und 6
anted 6
eder@@ 6
Theatre 6
ugu 6
youn@@ 6
DI 6
gry 6
idle 6
hea 6
cancel 6
¡ 6
volleyball 6
lec@@ 6
epic 6
HD@@ 6
halftime 6
aders 6
deck 6
Oak@@ 6
liner 6
13-@@ 6
snakes 6
straw 6
punctu@@ 6
stro 6
now-@@ 6
kett 6
Sir@@ 6
ahan 6
domin@@ 6
Productions 6
bail 6
Annie 6
ly-@@ 6
chamber 6
FL 6
arc@@ 6
tourists 6
é@@ 6
orm@@ 6
ance@@ 6
Power@@ 6
asp@@ 6
wav@@ 6
bai@@ 6
Cannon 6
manages 6
pistol 6
grant 6
Clear 6
Mati@@ 6
mansion 6
elings 6
50th 6
67@@ 6
Mary@@ 6
Les@@ 6
extrem@@ 6
Carpenter 6
coconut 6
alie 6
academy 6
infl@@ 6
pushed 6
Batt@@ 6
Gal@@ 6
am-@@ 6
directors 6
Phillip 6
FD@@ 6
Clear@@ 6
imi 6
akis 6
installed 6
bonds 6
tot@@ 6
spin-@@ 6
Barton 6
trilogy 6
champion 6
Disne@@ 6
Sul@@ 6
tique 6
flock 6
trading 6
19-@@ 6
activate 6
ci 6
Deg@@ 6
fa 6
whilst 6
ption 6
Set@@ 6
1986 6
Director 6
dt 6
omes 6
Rest@@ 6
mixture 6
indu@@ 6
Campbell 6
uf 6
designer 6
West@@ 6
hired 6
8:@@ 6
Italy 6
1976 6
onists 6
bot@@ 6
JR 6
Cats 6
exist@@ 6
internal 6
political 6
aver@@ 6
om-@@ 6
guided 6
ague 6
speculate 6
Weather 6
Mitchell 6
elu@@ 6
clin@@ 6
umn 6
lyn@@ 6
Zone 6
roe 6
smashed 6
bounce 6
adap@@ 6
reader 6
foam 6
stumbled 6
drew 6
Med@@ 6
Alpine 6
Row 6
Mand@@ 6
fields 6
Penn@@ 6
//@@ 6
urg@@ 6
Paradise 6
Penn 6
warrior 6
mand@@ 6
crashing 6
essi@@ 6
pasta 6
Lance 6
updates 6
Lewis 6
Barbara 6
Society 6
Som@@ 6
oven 6
retali@@ 6
Neigh@@ 6
monitor 6
nominated 6
emma 6
lis 6
Bj@@ 6
planets 6
coon 6
clearer 6
tees 6
pinch 6
olo@@ 6
Heav@@ 6
gars 6
esis 6
Travel@@ 6
festivals 6
portable 6
International 6
Everett 6
swift 6
103 6
3.5 6
enton 6
300@@ 6
Hence 6
Dy@@ 6
Mem@@ 6
zin 6
exchanged 6
2/@@ 6
Maxwell 6
Bachelor 6
custom 6
Detective 6
outw@@ 6
premier 6
gli@@ 6
dwelling 6
hog 6
steals 6
collected 6
anian 6
burton 6
Cum@@ 6
rates 6
fuel 6
arriving 6
Sant@@ 6
charg@@ 6
Sla@@ 6
theories 6
milli@@ 6
Samuel 6
whites 6
shir@@ 6
Jin 6
assi@@ 6
Crai@@ 6
gravity 6
hog@@ 6
Hugh 6
Walt 6
moist 6
After@@ 6
PO 6
chef 6
knit 6
jumper 6
03 6
stamp 6
scan 6
Ronnie 6
itz@@ 6
Cross@@ 6
Nation 6
disguise 6
Mobile 6
tower 6
Ga@@ 6
Foc@@ 6
array 6
Thanksgiving 6
Pet@@ 6
virtu@@ 6
legendary 6
summary 6
Alaska 6
-like 6
fashi@@ 6
onably 6
TS@@ 6
R-@@ 6
sour@@ 6
shook 6
mentions 6
praise 6
ode 6
premi@@ 6
identified 6
Edgar 6
massive 6
odes 6
count@@ 6
agency 6
Plant 6
Georgi@@ 6
nel 6
ulu 6
third-@@ 6
Piano 6
violation 6
aru 6
spun 6
umbrella 6
cone 6
Benn@@ 6
Ve@@ 6
ico 6
roots 6
defi@@ 6
stock@@ 6
Donal@@ 6
barrel 6
rod@@ 6
35@@ 6
ault 6
bred 6
Ash 6
gene@@ 6
check@@ 6
Aside 6
eda 6
Hop@@ 6
onne 6
Brett 6
Levi 6
grounds 6
tory 6
TB 6
Bush@@ 6
U.K. 6
documents 6
Folk 6
ruled 6
strain 6
enligh@@ 6
9/11 6
Hotel 6
1-3 6
eri@@ 6
fren@@ 6
entin 6
Mill@@ 6
atures 6
Cup 6
Libby 6
-T@@ 6
Canyon 6
occasional 6
orical 6
calculate 6
attacked 6
tourist 6
intri@@ 6
tighten 6
dash 6
champagne 6
oved 6
ography 6
Julian 6
198@@ 6
hol 6
Spencer 6
nets 6
gallon 6
abo@@ 6
corpor@@ 6
26-@@ 6
schools 6
discovery 6
ued 6
graphies 6
introducing 6
Win 6
Pear@@ 6
instrumental 6
distracted 6
tests 6
Lou 6
part-time 6
mson 6
crowded 6
eptive 6
maximum 6
liers 6
O'Donnell 6
lowest 6
Basketball 6
Personal 6
Hospital 6
duty 6
28-@@ 6
ouses 6
ffle 6
conquered 6
vid 6
jec@@ 6
Must@@ 6
14.@@ 6
prize 6
Pav@@ 6
hei@@ 6
Sonic 6
Celebr@@ 6
crisis 6
volunteer 6
Oc@@ 6
Arm@@ 6
Hart 6
weight@@ 6
tempered 6
Kas@@ 6
tm@@ 6
Rowland 6
aus 6
Nate 6
V-@@ 6
pale 6
Exchange 6
Eleven 6
petty 6
Fourth 6
28th 6
lex@@ 6
pps 6
Postal 6
icide 6
wandering 6
driven 6
spilled 6
instrum@@ 6
resembling 6
19@@ 6
lov 6
aten 6
hinted 6
pless 6
rented 6
Benjamin 6
default 6
Gavin 6
cope 6
poverty 6
stering 6
mount 6
lowly 6
oper@@ 6
icing 6
17-@@ 6
stunt 6
painting 6
Bis@@ 6
inaccurate 6
Sep@@ 6
vod@@ 6
citizens 6
29th 6
wid@@ 6
matched 6
brities 6
differenti@@ 6
explan@@ 6
Hunt 6
best-@@ 6
sor 6
releasing 6
Cosm@@ 6
chlor@@ 6
nood@@ 6
afr@@ 6
diverse 6
vou@@ 6
cloud 6
Pred@@ 6
Sit@@ 6
sexu@@ 6
shelter 6
grandparents 6
doomed 6
dys@@ 6
dar 6
Las@@ 6
PL 6
access@@ 6
increases 6
aug@@ 6
Francis 6
undecided 6
techn@@ 6
GT 6
ardy 6
goods 6
cyber@@ 6
Hadd@@ 6
punished 6
teenth 6
oxygen 6
medical 6
Arizona 6
Filipino 6
swimmer 6
pu 6
readers 6
rapid 6
Louisiana 6
consist@@ 6
delight 6
rip@@ 6
noisy 6
trousers 6
citizen 6
Alexander 6
wet@@ 6
pupils 6
rehear@@ 6
in-law 6
showers 6
ouncing 6
infants 6
Week@@ 6
beverages 6
Vic@@ 6
rebel@@ 6
emen 6
beni@@ 6
accuse 6
resi@@ 6
survival 6
suspicion 6
foundation 6
aggrav@@ 6
life-@@ 6
3r@@ 6
meetings 6
ditch 6
lawsuit 6
istically 6
involvement 6
implied 6
neutral 6
low-@@ 6
colorful 6
entice 6
permanent 6
ellings 6
anticipation 6
deity 6
boats 6
gradually 6
high-@@ 6
psychologist 6
analyze 6
liness 6
Mormon 6
oppose 6
paperwork 6
purposes 6
resource 6
expects 6
tiv@@ 6
bility 6
acu@@ 6
Intelligence 6
motel 6
Agre@@ 6
admits 6
vary 6
motives 6
Lav@@ 6
defense 6
dealer 6
invested 6
arrangement 6
devote 6
hormone 6
squee@@ 6
pinned 6
lishing 6
etic 6
appetite 6
prone 6
accomp@@ 6
Hawkins 6
adviser 6
fulfilled 6
demanding 6
ambition 6
uncommon 6
construct 6
categori@@ 6
nur@@ 6
requ@@ 6
prow@@ 6
repu@@ 6
ethnicity 6
acing 6
striking 6
beard 6
spontan@@ 6
vowed 6
calories 6
omed 6
tradition 6
vation 6
bearing 6
paired 6
neglect 6
steam 6
rewar@@ 6
wounds 6
Ei@@ 6
defines 6
promptly 6
questioned 6
pursuit 6
newly 6
Nowadays 6
realizes 6
paths 6
readily 6
decisive 6
supplies 6
descri@@ 6
ceremony 6
pouring 6
privately 6
compensate 6
celebrating 6
investigating 6
investing 6
five-@@ 6
apologi@@ 6
View 6
questionable 6
adhere 6
develops 6
Native 6
Tamil 6
belonging 6
individually 6
considerably 6
Concer@@ 6
Current 6
largest 6
oriented 6
transportation 6
ceased 6
creation 6
assaulted 6
characteristic 6
clari@@ 6
predicted 6
undoubtedly 6
frequ@@ 6
1970s 6
substantial 6
Subsequently 6
constitute 6
inevitable 6
Approximately 6
relatively 6
1990s 6
Indivi@@ 6
effectively 6
ensemble 6
monetary 6
characterized 6
Wrestling 6
advant@@ 6
provocative 6
references 6
increased 6
tactic 6
Fel@@ 6
persist@@ 6
requesting 6
compensation 6
representative 6
acqu@@ 6
permitted 6
possessed 6
execute 6
proximity 6
beverage 6
cellular 6
facade 6
attends 6
grasp 6
dismiss 6
France 6
relay 6
comply 6
Twenty 6
earliest 6
abdomin@@ 6
emphasize 6
consistent 6
counsel 6
contingent 6
apology 6
misleading 6
Show@@ 5
shade 5
Dav@@ 5
poetic 5
71 5
protagonist 5
catching 5
Thous@@ 5
Foot 5
Lat@@ 5
MEDIA 5
Kay 5
announcer 5
richest 5
massacre 5
lana 5
finals 5
replacement 5
estate 5
Dod@@ 5
Lt. 5
Tem@@ 5
pleton 5
communism 5
postal 5
attach 5
jailed 5
yland 5
Ho 5
omin@@ 5
Intel 5
Abbott 5
Manhattan 5
governor 5
Leg@@ 5
pack@@ 5
inspiring 5
derived 5
eral 5
pley 5
corpse 5
religi@@ 5
lers 5
salary 5
Crime 5
CP@@ 5
auti@@ 5
client 5
ono 5
Sum@@ 5
Thor@@ 5
pr 5
isa 5
whist@@ 5
sprint 5
FK 5
kir@@ 5
75@@ 5
ension 5
Bac@@ 5
Atkins 5
lineup 5
incredi@@ 5
public@@ 5
explo@@ 5
amine 5
Direc@@ 5
arly 5
etary 5
ik 5
23,@@ 5
oz@@ 5
Billboard 5
cult 5
desper@@ 5
Brad@@ 5
loop 5
z-@@ 5
raw@@ 5
navy 5
magnificent 5
human@@ 5
Devils 5
argu@@ 5
dominant 5
Pay@@ 5
shel@@ 5
L. 5
Springfield 5
diesel 5
Darren 5
Sports 5
ports 5
prises 5
slu@@ 5
Tak@@ 5
clerk 5
verb 5
boun@@ 5
cann@@ 5
sgiving 5
independ@@ 5
practiced 5
borders 5
osity 5
Wu@@ 5
vegetables 5
micro@@ 5
jective 5
Hann@@ 5
extinct 5
sed@@ 5
mugg@@ 5
Jet@@ 5
stag@@ 5
glory 5
Louisville 5
Hou@@ 5
joins 5
village 5
trader 5
princ@@ 5
b. 5
scop@@ 5
alyp@@ 5
whale 5
32@@ 5
tional 5
practic@@ 5
VI 5
thy@@ 5
Tea 5
collectively 5
tissue 5
humane 5
ques@@ 5
interpretation 5
youngsters 5
Multi@@ 5
retire 5
ockey 5
87@@ 5
Cyn@@ 5
Ariel 5
Kam@@ 5
Adventures 5
sophisticated 5
old-@@ 5
edit@@ 5
ulously 5
worldwide 5
aways 5
stoc@@ 5
aria 5
MC@@ 5
sheriff 5
alo@@ 5
Along 5
ector 5
sea@@ 5
Gordon 5
Fresno 5
fireworks 5
mia 5
Jr. 5
moder@@ 5
,000,000 5
P-@@ 5
Sandy 5
suite 5
61 5
jaw 5
etta 5
Talks 5
Yankees 5
org 5
Original 5
leys 5
gi 5
aes@@ 5
eper 5
ceas@@ 5
tools 5
Hen@@ 5
Budd@@ 5
18th 5
stimulate 5
tossed 5
stery 5
very@@ 5
malls 5
commission 5
Level 5
red-@@ 5
50,000 5
prop 5
Chandler 5
Raiders 5
Range 5
waters 5
Shaun 5
Mae 5
50-@@ 5
orbit 5
soldiers 5
time-@@ 5
Mang@@ 5
Citizen 5
batt@@ 5
Following 5
boycott 5
inning 5
onn@@ 5
Bry@@ 5
Rossi 5
WF@@ 5
Brend@@ 5
waving 5
valley 5
prud@@ 5
lav 5
Patty 5
obia 5
superstar 5
nuclear 5
Bla@@ 5
reveals 5
Marl@@ 5
Preston 5
Kle@@ 5
mercury 5
Log@@ 5
franchi@@ 5
athan 5
allu@@ 5
hym@@ 5
ral 5
wright 5
dw@@ 5
neo 5
joint 5
AO@@ 5
piracy 5
exec@@ 5
Law@@ 5
U-@@ 5
ze@@ 5
hatt@@ 5
1973 5
Jennings 5
Telec@@ 5
deaux 5
fran@@ 5
emer@@ 5
concrete 5
atics 5
stadium 5
theft 5
viewer 5
jar@@ 5
aum@@ 5
Avi@@ 5
interviewing 5
Kl@@ 5
slip 5
fills 5
vitamin 5
dealt 5
dong 5
encouraging 5
outdoors 5
ñ@@ 5
earthquake 5
abor@@ 5
John@@ 5
persona 5
Buffett 5
Deb@@ 5
chips 5
cannon 5
Aud@@ 5
resp@@ 5
spir@@ 5
bam@@ 5
Strong 5
illusion 5
grabbed 5
robbery 5
ming@@ 5
provo@@ 5
attacking 5
peg 5
drill 5
ranch 5
Bat@@ 5
symboli@@ 5
cia 5
explosion 5
enz@@ 5
sident 5
Capri@@ 5
Say@@ 5
itational 5
Lauren 5
umping 5
Flin@@ 5
wrestlers 5
210 5
Blake 5
trumpet 5
Bryant 5
Rip@@ 5
Yesterday 5
magne@@ 5
mort@@ 5
Gallagher 5
fresh@@ 5
Vand@@ 5
lakes 5
Sid@@ 5
Holding 5
sei 5
heavily 5
Herman 5
Gam@@ 5
flam@@ 5
chip 5
rich@@ 5
eding 5
terr@@ 5
fragile 5
ample 5
.A. 5
rec 5
disorders 5
plo@@ 5
gel 5
ewal@@ 5
chaotic 5
tioned 5
IRA 5
appealed 5
Joaquin 5
Poc@@ 5
Boone 5
competitive 5
properties 5
ories 5
FT@@ 5
Shin@@ 5
sbury 5
screens 5
Legal 5
vals 5
Ef@@ 5
Ell@@ 5
sir@@ 5
multi-@@ 5
distur@@ 5
Ast@@ 5
University 5
Catherine 5
gey 5
imagined 5
courtesy 5
Mov@@ 5
Raw 5
g. 5
operated 5
rath 5
real-life 5
brutal 5
batting 5
sums 5
Voc@@ 5
bach 5
Bus 5
lightning 5
Rain@@ 5
fewer 5
Rot@@ 5
1961 5
pist@@ 5
horr@@ 5
cancers 5
dictator 5
Grove 5
Hoffman 5
mountain@@ 5
destroying 5
sory 5
racism 5
Justice 5
Ministry 5
bah@@ 5
ligan 5
syndicated 5
illicit 5
Hopkins 5
hazard 5
ween 5
3-4 5
shoo@@ 5
pert 5
floating 5
storyline 5
envelope 5
Bull 5
editing 5
generations 5
omers 5
ester@@ 5
alis 5
unc@@ 5
Tunes 5
shift 5
retail 5
Missouri 5
pyr@@ 5
thmic 5
MCA 5
nings 5
vis@@ 5
out-of-@@ 5
secretary 5
Wong 5
Rupert 5
Von 5
Dig@@ 5
skil@@ 5
.D. 5
elman 5
center@@ 5
Lynch 5
pies 5
ambulance 5
Clean 5
reaches 5
Rev 5
assets 5
naming 5
professor 5
Maya 5
Streets 5
embarrassment 5
pler 5
kat@@ 5
charac@@ 5
Corn@@ 5
CP 5
joints 5
bombs 5
Lily 5
forwards 5
lette 5
geon 5
Gilbert 5
Gas 5
McMahon 5
practi@@ 5
oman 5
Lit@@ 5
Clara 5
59@@ 5
unrelated 5
exer@@ 5
venues 5
starter 5
Artists 5
promote 5
oso 5
rounded 5
Rak@@ 5
eft 5
gameplay 5
Kal@@ 5
ı 5
flour 5
inations 5
U.S 5
Ranch 5
logging 5
ged 5
olling 5
Thompson 5
custody 5
motive 5
swi@@ 5
ovic 5
avail@@ 5
athe@@ 5
Kimber@@ 5
cov@@ 5
chet 5
rag@@ 5
dentist 5
tron 5
Ordin@@ 5
campus 5
Mob@@ 5
Godd@@ 5
anium 5
violate 5
bomb@@ 5
Garner 5
worshi@@ 5
ital@@ 5
Originally 5
straight@@ 5
rally 5
Flight 5
PI 5
saga 5
forums 5
— 5
villain 5
Among 5
console 5
Light@@ 5
cling 5
tours 5
morph@@ 5
arist 5
1966 5
murder@@ 5
constructive 5
Yi@@ 5
aerial 5
assigned 5
Jill 5
Week 5
Human 5
breast@@ 5
Rho@@ 5
stud@@ 5
Shakespeare 5
Hey@@ 5
atur@@ 5
measures 5
36-@@ 5
tible 5
directing 5
Franco 5
const@@ 5
Bailey 5
Rae 5
Emp@@ 5
resident 5
tide 5
mu 5
ley@@ 5
coincidence 5
Pas@@ 5
vital 5
dal@@ 5
owners 5
courses 5
Sham@@ 5
recei@@ 5
allegedly 5
ı@@ 5
League 5
influenced 5
Rey 5
myster@@ 5
Strat@@ 5
sweep 5
dist 5
thand 5
Mod@@ 5
okes 5
tized 5
minority 5
Course 5
pockets 5
etal 5
38@@ 5
7,@@ 5
Truth 5
uch@@ 5
runway 5
Bash@@ 5
pumped 5
The@@ 5
essence 5
unting 5
penter 5
celebr@@ 5
phr@@ 5
CC 5
pered 5
¿@@ 5
contemporary 5
ente 5
chess 5
Dortm@@ 5
supernatural 5
Alpha 5
dice 5
Terr@@ 5
moth 5
diary 5
English@@ 5
Voice 5
escaping 5
wheelchair 5
earns 5
Maine 5
baskets 5
application 5
handcu@@ 5
clouds 5
fatal 5
Brun@@ 5
oth@@ 5
rounds 5
Keller 5
Ta@@ 5
onc@@ 5
Colonel 5
camping 5
documentary 5
Cinema 5
formally 5
25-@@ 5
demean@@ 5
Moving 5
establish 5
protec@@ 5
Fast@@ 5
immer@@ 5
onable 5
awberry 5
impro@@ 5
fly@@ 5
rant 5
corporate 5
15-@@ 5
Casey 5
135 5
Sus@@ 5
ules 5
Boxing 5
hep@@ 5
aird 5
Nigel 5
Ano@@ 5
relev@@ 5
thriller 5
wired 5
Lowe 5
stellar 5
polo 5
Ellis 5
Spring@@ 5
Kent 5
sett@@ 5
Marshall 5
Riley 5
achi@@ 5
character@@ 5
generic 5
Mall 5
Football 5
dili@@ 5
Nintendo 5
Pir@@ 5
antique 5
footage 5
Cross 5
convict 5
Paper 5
79@@ 5
literature 5
Lara 5
linked 5
nette 5
Sym@@ 5
ancient 5
restraint 5
traditionally 5
masks 5
Nash 5
Bridges 5
anders 5
1985 5
Round 5
complaints 5
annually 5
quantity 5
ventures 5
Cruz 5
140 5
Paramount 5
KA 5
Plain 5
wheels 5
sore 5
ench@@ 5
HS@@ 5
mode 5
trends 5
mert 5
expertise 5
Overall 5
failing 5
cleared 5
Kot@@ 5
Ruben 5
Lang@@ 5
NOTE 5
fever 5
Senior 5
warrant 5
worm 5
gia 5
screening 5
arians 5
output 5
stereotypes 5
domination 5
listeners 5
Inc 5
ebook 5
Ski@@ 5
spinning 5
denied 5
osa 5
Sprint 5
render 5
unresolved 5
4,@@ 5
reproductive 5
stig@@ 5
Joshua 5
discrimin@@ 5
Grad@@ 5
organs 5
Ron@@ 5
bore 5
Press 5
310 5
Phys@@ 5
Hy@@ 5
equality 5
Less 5
strained 5
vain 5
vicious 5
tric@@ 5
stored 5
Reed 5
raf@@ 5
contem@@ 5
Adrian 5
Osborne 5
formula 5
the-@@ 5
terminated 5
hundreds 5
climbing 5
nickn@@ 5
Ireland 5
reporting 5
5:@@ 5
Cabrera 5
Ami@@ 5
Fans 5
Swar@@ 5
quoted 5
registered 5
reflects 5
alities 5
Prior 5
nific@@ 5
ais 5
highlights 5
syrup 5
56 5
explicit 5
oux 5
Project 5
eye-@@ 5
boxer 5
Few 5
fum@@ 5
Dal@@ 5
backbone 5
deter@@ 5
lifted 5
secret@@ 5
istic 5
proceeds 5
main@@ 5
opt 5
abs@@ 5
likewise 5
reactions 5
swim@@ 5
Venus 5
satis@@ 5
refr@@ 5
mentality 5
duties 5
relieve 5
richer 5
BC 5
spying 5
declines 5
fini@@ 5
methods 5
demands 5
invites 5
integrity 5
super-@@ 5
communications 5
situ@@ 5
suff@@ 5
spreading 5
wound 5
disagreements 5
ution 5
criticism 5
unemployed 5
contempl@@ 5
tual 5
compens@@ 5
tolerance 5
Stud@@ 5
switching 5
ffed 5
greeting 5
ceremonies 5
handing 5
tle@@ 5
acles 5
enhance 5
Buil@@ 5
tened 5
partic@@ 5
thigh 5
philosophy 5
raging 5
Popular 5
Ess@@ 5
moisture 5
commented 5
supports 5
liberals 5
indic@@ 5
presentation 5
acronym 5
Already 5
anonymous 5
politically 5
betrayed 5
surpri@@ 5
evid@@ 5
exceed 5
tough@@ 5
combines 5
peaceful 5
praised 5
evic@@ 5
rebels 5
proposing 5
Jew@@ 5
Gregor 5
applying 5
separately 5
usage 5
Starbucks 5
principle 5
tougher 5
repl@@ 5
Turkish 5
blessing 5
Treas@@ 5
practices 5
escent 5
employee 5
amongst 5
tragedy 5
adapted 5
occ@@ 5
educate 5
shortcomings 5
face-to-face 5
anxiety 5
designed 5
riad 5
glove 5
Physical 5
growth 5
gauge 5
snack 5
aceous 5
obe@@ 5
handled 5
disp@@ 5
entary 5
Buck@@ 5
traction 5
responsi@@ 5
develop@@ 5
predic@@ 5
advising 5
Denise 5
Square 5
diversity 5
death@@ 5
contrast 5
restrict 5
supervisor 5
accountable 5
ranked 5
reconc@@ 5
accord 5
Tokyo 5
reduce 5
desc@@ 5
motivated 5
regarded 5
attendance 5
Nevertheless 5
Kennedy 5
functioning 5
Tow@@ 5
accused 5
portraying 5
maintaining 5
Certain 5
U.S. 5
Anni@@ 5
absent 5
displays 5
Strip 5
procedure 5
Pittsburgh 5
gathered 5
actively 5
reviewed 5
originating 5
Saints 5
scri@@ 5
repri@@ 5
affordable 5
enforcement 5
logical 5
relocated 5
obstacle 5
problematic 5
Hersh@@ 5
navig@@ 5
Dic@@ 5
unwilling 5
statistics 5
exagger@@ 5
enth@@ 5
gathering 5
Jag@@ 5
Tennessee 5
evident 5
tremend@@ 5
inadequate 5
parted 5
Examples 5
container 5
Prec@@ 5
Incre@@ 5
solid 5
incidentally 5
progres@@ 5
neglected 5
region 5
possessions 5
fearful 5
Fif@@ 5
perceived 5
Minnesota 5
impaired 5
pairing 5
anticipate 5
raising 5
essentially 5
Egypt 5
Afterward 5
component 5
proceeding 5
provoc@@ 5
relating 5
emaking 5
determining 5
employ 5
obtaining 5
permit 5
exacerb@@ 5
succum@@ 5
underlying 5
concluded 5
Nigeria 5
contracted 5
significance 5
troubl@@ 5
exams 4
23-@@ 4
3D 4
Creative 4
'60s 4
cep@@ 4
Taiwan 4
Gil 4
ethnic 4
Raw@@ 4
oya 4
brooke 4
Executive 4
9/@@ 4
chief 4
Nal@@ 4
epo@@ 4
arro 4
Bene@@ 4
erra 4
Curry 4
globe 4
landing 4
Further 4
Vac@@ 4
spotlight 4
dium 4
dinosaurs 4
Sed@@ 4
echo 4
seas 4
zig 4
Salomon 4
Dwight 4
76 4
pip@@ 4
wrist 4
ural 4
Ze@@ 4
revolution 4
Writing 4
Perez 4
burnt 4
Mercedes 4
owski 4
dual 4
Quin@@ 4
Education 4
founded 4
NFL 4
varieties 4
Columbia 4
Pati@@ 4
publicly 4
Mayor 4
pri 4
err 4
elec 4
Investigation 4
Raj@@ 4
fallout 4
ilers 4
1981 4
adies 4
ions 4
toured 4
Jew 4
south@@ 4
orrow 4
shield 4
Kur@@ 4
102 4
umes 4
zier 4
Maver@@ 4
tore 4
intact 4
Salvation 4
engeance 4
dith 4
ession 4
painters 4
ovsky 4
uda 4
mills 4
Sent@@ 4
gist 4
trigger 4
Marian 4
explosive 4
Barnett 4
Dil@@ 4
statue 4
Powell 4
Burke 4
138 4
beta 4
Lay@@ 4
eastern 4
right-@@ 4
cr 4
slick 4
Kol@@ 4
skipped 4
BP 4
kha@@ 4
expelled 4
tunnel 4
Sis@@ 4
as-@@ 4
ias 4
1932 4
Subur@@ 4
DP 4
miniseries 4
Division 4
xi 4
famine 4
float 4
secretive 4
Schwarzenegger 4
Carson 4
Bowl 4
lab 4
delic@@ 4
projec@@ 4
softball 4
switched 4
Seymour 4
kirk 4
brook 4
ective 4
McCall 4
tern 4
Named 4
whistle 4
22nd 4
designs 4
asa 4
coins 4
48@@ 4
marked 4
mph 4
downward 4
Nim@@ 4
yen 4
chia 4
eri 4
collaborated 4
Jordan 4
spies 4
Calvin 4
explorer 4
Impact 4
blue@@ 4
111 4
Der 4
colli@@ 4
pav@@ 4
modem 4
Pun@@ 4
Non@@ 4
Rene 4
Angela 4
son-@@ 4
Daw@@ 4
onia 4
Pond 4
onda 4
Hep@@ 4
AE@@ 4
Authority 4
fas@@ 4
Guil@@ 4
rivals 4
hosting 4
Soldiers 4
slides 4
patri@@ 4
Gate 4
Eb@@ 4
reson@@ 4
suffers 4
colleges 4
Det@@ 4
8/@@ 4
uty 4
Charac@@ 4
keen 4
serv@@ 4
Nab@@ 4
Eth@@ 4
Adam@@ 4
PD@@ 4
calcul@@ 4
wol@@ 4
clash 4
discount 4
siders 4
by-@@ 4
street@@ 4
rics 4
veri@@ 4
draft 4
esta 4
Cav@@ 4
nuns 4
eland 4
Universe 4
Oates 4
Sr. 4
bani@@ 4
Pain@@ 4
Cohen 4
yar@@ 4
Market 4
model@@ 4
Leary 4
Tulsa 4
sharp@@ 4
oline 4
rebu@@ 4
breeding 4
viewers 4
ace@@ 4
loy@@ 4
kinson 4
br 4
towers 4
raid 4
Per 4
J.P. 4
Richardson 4
tures 4
40.@@ 4
25.@@ 4
cabin 4
Bald@@ 4
joc@@ 4
Trinity 4
Guardian 4
chip@@ 4
cos@@ 4
hitter 4
Ide@@ 4
usti@@ 4
Brown@@ 4
torch 4
uri 4
TC@@ 4
organize 4
museums 4
Scho@@ 4
mb@@ 4
eternal 4
e.g. 4
boiling 4
ellar 4
uman 4
uro 4
Rebel 4
Klu@@ 4
vari@@ 4
less@@ 4
1911 4
Study 4
sacrific@@ 4
tactics 4
Liberty 4
temple 4
seas@@ 4
Bolog@@ 4
8:30 4
belts 4
tos 4
6,@@ 4
54@@ 4
asso 4
aff 4
Tech@@ 4
oker 4
egger 4
buy@@ 4
recipient 4
190@@ 4
erase 4
700 4
insects 4
MD 4
scal@@ 4
sau@@ 4
sham 4
oners 4
server 4
Minutes 4
Festival 4
Corner 4
este 4
du 4
mys@@ 4
inde@@ 4
blades 4
elia 4
alists 4
bian 4
flood 4
dening 4
Class 4
hem@@ 4
campaign 4
12:@@ 4
tabloid 4
Savage 4
pad 4
illas 4
consequ@@ 4
inos 4
charity 4
Marion 4
Sof@@ 4
concession 4
Webb 4
seam@@ 4
borne 4
evers 4
self-titled 4
prosp@@ 4
celebrated 4
sac@@ 4
Russia 4
tioner 4
Sherman 4
sley 4
Di 4
allow@@ 4
O.J 4
confidential 4
ffing 4
Adding 4
cabinet 4
portal 4
astly 4
borg 4
alt 4
Sni@@ 4
Waters 4
onen 4
Base 4
competitions 4
peac@@ 4
nate 4
manor 4
Nit@@ 4
melted 4
MIT 4
opponent 4
inspir@@ 4
Tracy 4
dell 4
Baltimore 4
quo 4
prisoner 4
duplicate 4
rider 4
home-@@ 4
Fitzgerald 4
aval@@ 4
embr@@ 4
trop@@ 4
heir 4
produc@@ 4
Anita 4
conn@@ 4
sid@@ 4
translated 4
eley 4
slaves 4
extract 4
Manc@@ 4
angled 4
Crane 4
rises 4
augh 4
fled 4
sponsored 4
pleas 4
thern 4
breath@@ 4
leaders 4
Myers 4
Hurricane 4
bor 4
Corey 4
not-@@ 4
Damon 4
Eliot 4
minal 4
magnet 4
sellers 4
Hud@@ 4
acr@@ 4
severely 4
bows 4
fores@@ 4
thunder@@ 4
summar@@ 4
m. 4
3.1 4
Wise 4
Mann 4
ichi 4
Than@@ 4
targeted 4
tuary 4
angles 4
auto 4
Wales 4
towns 4
Grady 4
experimental 4
grapes 4
1946 4
scientists 4
dness 4
xville 4
Perth 4
eli 4
tioners 4
province 4
liberal 4
curr@@ 4
ent-@@ 4
thorn 4
coats 4
Johansson 4
patr@@ 4
27th 4
shif@@ 4
Rescue 4
Saxon 4
inte@@ 4
promoting 4
banner 4
racer 4
por 4
wyn 4
reunited 4
Bears 4
aped 4
nival 4
ylan 4
Emergency 4
league 4
Conway 4
Twit@@ 4
diminished 4
104 4
Harlem 4
ridge 4
nish 4
aux 4
bau@@ 4
caller 4
game@@ 4
ranking 4
country@@ 4
Bucke@@ 4
Norman 4
foc@@ 4
Douglas 4
blin 4
Lucky 4
four-@@ 4
foil 4
antenna 4
Crus@@ 4
ods 4
Gab@@ 4
Allan 4
Harris 4
Ced@@ 4
Gin@@ 4
Singles 4
agers 4
ceiling 4
Laughlin 4
designing 4
feder@@ 4
hara 4
Han 4
acet@@ 4
diversi@@ 4
Lind@@ 4
rockets 4
cash@@ 4
metro 4
bis 4
monds 4
Keane 4
Wave 4
25,000 4
eared 4
Grun@@ 4
All-@@ 4
fur 4
feeds 4
endit@@ 4
Violence 4
Vs 4
stil@@ 4
man-@@ 4
eville 4
Group 4
Tend@@ 4
iv@@ 4
conserv@@ 4
fighters 4
zards 4
AAA 4
ol-@@ 4
Aid 4
sourcing 4
fray 4
mont 4
scenery 4
bidden 4
Business 4
Moy@@ 4
88@@ 4
otti 4
Honey@@ 4
ix 4
Ontario 4
Packers 4
kens 4
Chick@@ 4
chur@@ 4
Brent 4
ewell 4
ounder 4
Lip@@ 4
Sap@@ 4
Hat@@ 4
acon 4
arch@@ 4
Woods 4
all-time 4
inter 4
Rap@@ 4
dawn 4
keepers 4
Cost@@ 4
Bag@@ 4
eligible 4
atta 4
Engine 4
specific@@ 4
canyon 4
Lang 4
lav@@ 4
1974 4
archy 4
efficient 4
scientist 4
absence 4
prompted 4
rank 4
freeze 4
tent 4
Champion 4
Wom@@ 4
4:@@ 4
North@@ 4
Alam@@ 4
sub 4
atic@@ 4
luxury 4
South@@ 4
portions 4
buzz@@ 4
separ@@ 4
argued 4
liquid 4
Sgt 4
humanitarian 4
50.@@ 4
elder 4
cast@@ 4
st-@@ 4
tini 4
Various 4
Greenpeace 4
sections 4
combine 4
lemon 4
NASA 4
eros 4
buildings 4
Premier 4
Bos@@ 4
dispos@@ 4
ga@@ 4
Sweden 4
Card 4
osis 4
poured 4
grabs 4
offen@@ 4
oro 4
broadband 4
166 4
nocence 4
finishing 4
Sain@@ 4
diag@@ 4
pottery 4
pois@@ 4
withstand 4
Cig@@ 4
retur@@ 4
crowds 4
grenade 4
rhet@@ 4
scouts 4
sti 4
detec@@ 4
salon 4
phin 4
Ros@@ 4
thieves 4
showcase 4
wheat 4
mini@@ 4
´ 4
Fair 4
UTION 4
Sega 4
131 4
quarterback 4
riders 4
comment@@ 4
egar 4
Sas@@ 4
editor 4
arbitrary 4
athlete 4
seating 4
Ala@@ 4
patrol 4
Gle@@ 4
ost@@ 4
inary 4
grin 4
dru@@ 4
estive 4
minorities 4
depen@@ 4
submission 4
pion@@ 4
asph@@ 4
agenda 4
art@@ 4
Beta 4
for-@@ 4
glam@@ 4
wrec@@ 4
moun@@ 4
Blair 4
treas@@ 4
deo 4
Jays 4
chs 4
eway 4
cured 4
4.5 4
Cel@@ 4
Kathy 4
stam@@ 4
removal 4
hybrid 4
para 4
care@@ 4
inners 4
whir@@ 4
vist 4
Clare 4
aching 4
Twin 4
tol@@ 4
sauc@@ 4
rink 4
usable 4
Temple 4
Royal 4
vet@@ 4
bos 4
bok 4
obvi@@ 4
similarity 4
air-@@ 4
resting 4
exac@@ 4
nickel 4
Lambert 4
Stor@@ 4
sla@@ 4
crete 4
eau 4
Anast@@ 4
gown 4
97@@ 4
Bacon 4
verson 4
controls 4
stir 4
Revival 4
store@@ 4
Factor 4
CB@@ 4
3,@@ 4
Elaine 4
quer@@ 4
polished 4
incid@@ 4
shire 4
convenient 4
Golf 4
Willie 4
faded 4
tunn@@ 4
lash 4
Iv@@ 4
d. 4
xter 4
play-@@ 4
Medina 4
57@@ 4
tapping 4
bidding 4
ilo 4
kg 4
ballistic 4
dial@@ 4
31-@@ 4
Ris@@ 4
Baron@@ 4
Jericho 4
wing@@ 4
specialty 4
tackle 4
clude 4
Weap@@ 4
Sears 4
DM@@ 4
180 4
pling 4
Pakistani 4
shri@@ 4
grit@@ 4
lungs 4
borrowed 4
anx@@ 4
25th 4
devices 4
Webber 4
slammed 4
Eagle 4
manufacturer 4
institution 4
tightly 4
replacing 4
emerging 4
adopting 4
SUV 4
Rover 4
cameo 4
Shu@@ 4
Pablo 4
Liber@@ 4
tast@@ 4
Moody 4
Nut@@ 4
Stanley 4
census 4
jeopardy 4
eder 4
referee 4
accept@@ 4
hec@@ 4
Teresa 4
cot 4
143 4
assaul@@ 4
Rim@@ 4
Peggy 4
emphasized 4
vities 4
big-@@ 4
11th 4
Temp@@ 4
wis@@ 4
pric@@ 4
bargain 4
Tun@@ 4
poses 4
pitched 4
D.C. 4
mass 4
Edward 4
finishes 4
empire 4
Il 4
demonstrated 4
ativity 4
mild 4
ub 4
railroad 4
senator 4
ika 4
retiring 4
thrive 4
Guerrero 4
dal 4
Bud@@ 4
anec@@ 4
Qui@@ 4
hard-@@ 4
explored 4
1,0@@ 4
Gay@@ 4
Panama 4
expectation 4
Palmer 4
cockpit 4
shelf 4
stages 4
Indonesia 4
absorb 4
punches 4
ordinarily 4
zzard 4
Northern 4
toxic 4
Wang 4
otes 4
consen@@ 4
Inn 4
Kut@@ 4
motor@@ 4
resembled 4
blamed 4
onics 4
Retur@@ 4
frag@@ 4
catalog 4
22@@ 4
crafted 4
heated 4
Borg@@ 4
investigator 4
interrupted 4
ghting 4
Cuban 4
bital 4
chr@@ 4
hometown 4
undercover 4
flows 4
leak 4
Verizon 4
chased 4
saus@@ 4
Danish 4
kets 4
mark@@ 4
enem@@ 4
nurses 4
common@@ 4
Hall@@ 4
Gas@@ 4
tram@@ 4
Cork 4
crane 4
San@@ 4
plun@@ 4
Za@@ 4
Pride 4
Khal@@ 4
forecast 4
Beer 4
lawyers 4
path@@ 4
foe 4
Nec@@ 4
agonist 4
screenplay 4
cans 4
invented 4
Tat@@ 4
specialist 4
cosmetics 4
loop@@ 4
Cars 4
Blan@@ 4
uled 4
exposure 4
veget@@ 4
Brotherhood 4
unpopular 4
hunters 4
Eastern 4
brushed 4
hand-@@ 4
counsel@@ 4
Comm@@ 4
Ling@@ 4
kout 4
weaknesses 4
dience 4
solicited 4
deg@@ 4
dled 4
airport 4
organized 4
Denver 4
prot@@ 4
saf@@ 4
muster 4
indicator 4
agi@@ 4
prey 4
Rud@@ 4
Camp 4
Security 4
transplant 4
Darryl 4
medium 4
Ruth 4
allerg@@ 4
excit@@ 4
pressured 4
gid 4
Hin@@ 4
Box@@ 4
out-@@ 4
authorities 4
courthouse 4
open@@ 4
distraction 4
compati@@ 4
renew 4
shooter 4
incentive 4
horsepower 4
infection 4
63 4
virtually 4
surveys 4
corrected 4
skiing 4
Borders 4
honorable 4
grandchildren 4
chapel 4
suspic@@ 4
semester 4
morality 4
wireless 4
premature 4
enrolled 4
mock 4
asset 4
contrac@@ 4
oils 4
plunge 4
immediate 4
T-shirt 4
association 4
rein@@ 4
Eric@@ 4
formation 4
Forward 4
obli@@ 4
Common 4
steer 4
Bahamas 4
realm 4
preci@@ 4
maxim@@ 4
temporarily 4
-day 4
Dec 4
rele@@ 4
granddaughter 4
aspirations 4
skeptical 4
suming 4
flipped 4
slogan 4
royalty 4
var@@ 4
overwhel@@ 4
ologically 4
Nature 4
owes 4
robots 4
aser 4
ressed 4
ves@@ 4
quet 4
harshly 4
glut@@ 4
cit@@ 4
correspondence 4
accessories 4
techniques 4
meter 4
virtue 4
divert 4
moil 4
mentor 4
recovery 4
conve@@ 4
bachelor 4
serving 4
Iranian 4
4-6 4
rejecting 4
urst 4
willingness 4
remedi@@ 4
misery 4
itations 4
noted 4
junc@@ 4
experim@@ 4
necessity 4
highs 4
arise 4
30th 4
affecting 4
dedic@@ 4
uate 4
forgi@@ 4
temper@@ 4
considerations 4
ghty 4
capability 4
packaging 4
intellectual 4
physician 4
ished 4
passage 4
Creek 4
inher@@ 4
Philadelphia 4
departure 4
Real@@ 4
compares 4
presenting 4
influential 4
resigned 4
narrative 4
interactions 4
Doctors 4
apparel 4
Compared 4
Greg 4
achieving 4
Ultimately 4
prominent 4
Located 4
separating 4
oration 4
sub-@@ 4
installment 4
Steelers 4
submitted 4
organization 4
belonged 4
televisions 4
excluding 4
immense 4
Nas@@ 4
incre@@ 4
associates 4
Dale 4
confirmed 4
composition 4
iding 4
minimal 4
assertion 4
consciousness 4
variables 4
Sac@@ 4
deemed 4
elevated 4
oughly 4
Arabian 4
Port@@ 4
cheering 4
duet 4
Excluding 4
p.m. 4
Majority 4
six-@@ 4
fiable 4
debuted 4
deliver 4
Yu 4
pairs 4
successfully 4
context 4
ulating 4
ition 4
Previously 4
permanently 4
Rising 4
Dra@@ 4
depicted 4
inability 4
facility 4
​ 4
designation 4
constructed 4
intu@@ 4
Judge 4
sumably 4
Ruby 4
selecting 4
Fai@@ 4
remarkable 4
contracting 4
claiming 4
performers 4
maintains 4
intellec@@ 4
threatening 4
Joseph 4
participant 4
crucial 4
conceal 4
grounded 4
abandoning 4
formul@@ 4
undertake 4
resulted 4
recommendations 4
recovered 4
colleague 4
caliber 4
Immediately 4
accuracy 4
distinguish 4
dispar@@ 4
surrounded 4
eight-@@ 4
discretion 4
dispute 4
head-@@ 4
vely 4
fashionable 4
costly 4
uting 4
exhibits 4
delighted 4
midst 4
effor@@ 4
completion 4
participated 4
fear@@ 4
counterfe@@ 4
cooperate 4
Twenty-@@ 4
assisted 4
resolution 4
Initially 4
judged 4
assumptions 4
uality 4
ineffective 4
solutions 4
well-being 4
objectives 4
forthcoming 4
Support 4
falsi@@ 4
initiative 4
populated 4
abdomen 4
obliged 4
intervene 4
MLB 3
capitals 3
essor 3
outlawed 3
coated 3
vens 3
Cycl@@ 3
drug-@@ 3
bloo@@ 3
painter 3
Coliseum 3
anza 3
illo 3
Greene 3
Sach@@ 3
sal 3
enne 3
Nicolas 3
Calif. 3
affiti 3
Claus 3
circa 3
contin@@ 3
bush@@ 3
Voy@@ 3
linking 3
sque@@ 3
wal 3
fluctu@@ 3
mod@@ 3
13,@@ 3
mil 3
correspond@@ 3
nis 3
aler@@ 3
specializes 3
mechanic 3
erson 3
Abu 3
Uz@@ 3
alla 3
anchor 3
Everest 3
paper@@ 3
ahn 3
Expl@@ 3
Bron@@ 3
Patric@@ 3
p. 3
adv@@ 3
sliced 3
Nov 3
Exper@@ 3
gro 3
Schul@@ 3
eworthy 3
Tampa 3
Eag@@ 3
Clarence 3
Loc 3
152 3
Hayes 3
Nam@@ 3
Interstate 3
Townsend 3
cushion 3
USD 3
soaring 3
beh@@ 3
aro 3
bulk 3
ordin@@ 3
aan 3
catcher 3
Tribune 3
kon 3
borrowing 3
exploited 3
7:@@ 3
popul@@ 3
trail@@ 3
resid@@ 3
uals 3
manship 3
beetle 3
lanes 3
Hass@@ 3
leagues 3
vard 3
teach@@ 3
conductor 3
oughs 3
galaxy 3
drow@@ 3
tracking 3
athed 3
loyd 3
9,000 3
inia 3
grilled 3
oly@@ 3
ure-@@ 3
VII 3
vil@@ 3
grains 3
heel 3
shields 3
gon@@ 3
chore@@ 3
commerci@@ 3
accur@@ 3
marine 3
TD 3
blankets 3
ounded 3
4.9 3
42.@@ 3
ence-@@ 3
Leon@@ 3
heigh@@ 3
tropical 3
Hal 3
pol 3
extre@@ 3
Sea@@ 3
e. 3
champions 3
pson 3
audiences 3
agr@@ 3
directs 3
Craw@@ 3
plain@@ 3
laden 3
PM@@ 3
Ole 3
Stock 3
RT@@ 3
Water@@ 3
Tracks 3
graders 3
Co 3
pledge 3
ss-@@ 3
hut 3
Additional 3
Bengal 3
Fon@@ 3
Site 3
flow@@ 3
Slam 3
presidential 3
potent 3
Stal@@ 3
Leop@@ 3
abee 3
strat@@ 3
Cos@@ 3
collects 3
yme 3
segment 3
grape 3
agar 3
composers 3
swap 3
story@@ 3
transaction 3
Hardy 3
abled 3
nicks 3
ung@@ 3
olig@@ 3
tax@@ 3
patches 3
ESPN 3
determines 3
Glad@@ 3
Drum@@ 3
identi@@ 3
phy 3
framed 3
Heli@@ 3
Clyde 3
Kak@@ 3
Jews 3
sche 3
a.m. 3
Edwards 3
Old@@ 3
icals 3
saint 3
shells 3
marathon 3
border 3
cross-@@ 3
Clu@@ 3
Que@@ 3
second-@@ 3
double-@@ 3
circulation 3
scu@@ 3
north@@ 3
factories 3
Part@@ 3
Hos@@ 3
1948 3
lining 3
Meh@@ 3
stair@@ 3
gangs 3
parad@@ 3
daylight 3
justified 3
epid@@ 3
crimin@@ 3
Boll@@ 3
Shir@@ 3
Lal@@ 3
crust 3
Goldberg 3
Thre@@ 3
pulse 3
omar 3
narrator 3
ett@@ 3
hypothe@@ 3
Anti@@ 3
pseudonym 3
acial 3
Levine 3
Mall@@ 3
alties 3
compressed 3
pub 3
guru 3
Worldwide 3
awe@@ 3
straight-@@ 3
Conrad 3
yielding 3
democracy 3
Anti-@@ 3
Flag 3
i.e. 3
shutting 3
18,@@ 3
Cul@@ 3
Eu@@ 3
Ry@@ 3
Christine 3
Watts 3
fasc@@ 3
conceded 3
Cong@@ 3
twer@@ 3
supporters 3
Fashion 3
incorporated 3
Bau@@ 3
haus 3
thorough 3
Nicol@@ 3
eed 3
adia 3
creators 3
Pis@@ 3
Jess@@ 3
limp@@ 3
0s 3
Gregg 3
barr@@ 3
mono@@ 3
Clou@@ 3
injuries 3
wind@@ 3
midd@@ 3
bery 3
redem@@ 3
val 3
tomb 3
kei 3
annah 3
splits 3
lifts 3
elo 3
vic 3
Pleas@@ 3
Fuller 3
Kro@@ 3
rang 3
N.Y. 3
healing 3
trainer 3
det@@ 3
oured 3
Poly@@ 3
Campus 3
Beckett 3
Thurs@@ 3
Es@@ 3
transition 3
et-@@ 3
ype 3
aud 3
poon 3
competes 3
Beeth@@ 3
ovan 3
rote 3
vered 3
aden 3
fus 3
dav@@ 3
independents 3
fiery 3
sketch 3
|@@ 3
ati 3
Walters 3
ü@@ 3
assin 3
adventures 3
helm 3
Hancock 3
Shut@@ 3
Ring@@ 3
amped 3
minister 3
Mell@@ 3
Franc@@ 3
replaces 3
watchers 3
popping 3
eld 3
ium 3
ects 3
bbled 3
Andre@@ 3
Shad@@ 3
Iverson 3
underwater 3
Beau@@ 3
moto 3
mistak@@ 3
ennes 3
estation 3
pled 3
dried 3
rence 3
See@@ 3
inspector 3
rowing 3
cosm@@ 3
foun@@ 3
RAM 3
partments 3
philosopher 3
Recreation 3
rebuild 3
inno@@ 3
ruler 3
controversy 3
zon@@ 3
rh@@ 3
prer@@ 3
variations 3
breakaway 3
Democrat 3
elop@@ 3
Sales 3
Argentina 3
Baxter 3
propaganda 3
goats 3
Persian 3
networks 3
ö@@ 3
craf@@ 3
election 3
Olympics 3
Fed 3
bolt 3
conviction 3
chambers 3
mie 3
ensen 3
15,000 3
progression 3
Nath@@ 3
Giles 3
Reilly 3
dman 3
me-@@ 3
ranges 3
Pass@@ 3
dison 3
Deep@@ 3
alu@@ 3
Kno@@ 3
bran@@ 3
fman 3
indu 3
tycoon 3
battling 3
Ecu@@ 3
Maj@@ 3
Integr@@ 3
Aires 3
-in 3
carn@@ 3
Gregory 3
29.@@ 3
blocks 3
amber 3
mons 3
macy 3
Shopping 3
chord 3
Bail@@ 3
terman 3
ransom 3
bleeding 3
wooded 3
hollow 3
zones 3
branded 3
Aston 3
Bonds 3
mind-@@ 3
substitute 3
infield 3
summers 3
arren 3
skel@@ 3
rook@@ 3
depres@@ 3
botched 3
Rodgers 3
Rodriguez 3
headlines 3
vine 3
eers 3
RM@@ 3
ffe@@ 3
onies 3
26th 3
wr 3
Austria 3
Flower 3
followers 3
dney 3
Eliz@@ 3
feud 3
Jefferson 3
loc 3
8,@@ 3
10,@@ 3
Drug 3
Hole 3
legends 3
lead@@ 3
hards 3
Brand@@ 3
oga 3
Moss 3
equili@@ 3
SF 3
prediction 3
SU 3
tec@@ 3
institute 3
disqualified 3
emaker 3
aires 3
portrait 3
Champions 3
Malcolm 3
gr 3
Land@@ 3
nic 3
ed-up 3
Pierre 3
masters 3
overtime 3
entions 3
champ 3
Rou@@ 3
ficially 3
lined 3
modified 3
oys 3
privilege 3
deal@@ 3
Broad@@ 3
puni@@ 3
Board 3
Crisis 3
Rich@@ 3
ord 3
predictions 3
fined 3
uters 3
AMP 3
Hindu 3
collec@@ 3
sanctuary 3
warriors 3
cuit 3
installation 3
toil@@ 3
Free@@ 3
Cave 3
anya 3
Bangalore 3
Auto 3
jobless 3
fines 3
WASH@@ 3
gian 3
Staples 3
multi@@ 3
Vid@@ 3
beet@@ 3
·@@ 3
sharks 3
McG@@ 3
hr@@ 3
programmed 3
yman 3
distributor 3
odd@@ 3
hanged 3
Eighth 3
Chal@@ 3
toll 3
'80s 3
Hale 3
collar 3
reign 3
Scouts 3
trademark 3
epit@@ 3
five-year 3
Schools 3
seys 3
olive 3
cyn@@ 3
donate 3
suing 3
recogni@@ 3
00-@@ 3
poisoning 3
frames 3
cir@@ 3
occup@@ 3
Coffee 3
computer@@ 3
Brenda 3
rev@@ 3
eted 3
196@@ 3
fiers 3
liber@@ 3
sery 3
reporter 3
Baron 3
bele@@ 3
II@@ 3
unders 3
Wu 3
Com 3
outrag@@ 3
Pope 3
foreigners 3
Summers 3
sump@@ 3
Grou@@ 3
Soccer 3
astro@@ 3
Neur@@ 3
1940 3
Fame 3
Award 3
clai@@ 3
11-@@ 3
reti@@ 3
Faw@@ 3
Kok@@ 3
automatic 3
4/@@ 3
smuggling 3
arium 3
Mack@@ 3
merging 3
U. 3
slash 3
enlisted 3
Jonas 3
fiel@@ 3
estone 3
zine 3
sace 3
spotted 3
ballet 3
treasures 3
stling 3
perv@@ 3
Zor@@ 3
144 3
CIA 3
kov 3
bap@@ 3
iser 3
olin 3
arta 3
125 3
odic 3
Stein 3
aments 3
fabric 3
estyle 3
adver@@ 3
COP@@ 3
Suz@@ 3
Wheat 3
span 3
Vis@@ 3
pushes 3
imprisoned 3
newcomer 3
beck 3
Tir@@ 3
abducted 3
nard 3
dug 3
Dif@@ 3
diarr@@ 3
10:@@ 3
Guild 3
Aqu 3
Ramirez 3
limit@@ 3
ITAR@@ 3
1.5 3
Growing 3
affiliated 3
adju@@ 3
mania 3
jecting 3
Cambri@@ 3
VC 3
Larsen 3
productions 3
ternal 3
Philippine 3
itude 3
intervention 3
Studio 3
monk 3
warmer 3
motorcycle 3
crop 3
ae@@ 3
Lakes 3
Chi 3
arc 3
Towers 3
Bai@@ 3
garden@@ 3
progressive 3
40s 3
ont@@ 3
camer@@ 3
Romanian 3
colum@@ 3
Sullivan 3
grad 3
Championship 3
Alfred 3
boycot@@ 3
doubles 3
crimes 3
ony@@ 3
Forest 3
USC 3
tear@@ 3
By@@ 3
bias 3
stur@@ 3
Scout 3
short-@@ 3
tou@@ 3
1959 3
ria 3
eclip@@ 3
Helena 3
reluctant 3
Mart@@ 3
tallest 3
Kom@@ 3
aspir@@ 3
losses 3
shut@@ 3
aret 3
slow@@ 3
text@@ 3
Martin@@ 3
discover@@ 3
digit@@ 3
corrupt 3
Pre-@@ 3
Weaver 3
global 3
autobiography 3
marines 3
Foley 3
refle@@ 3
yar 3
91 3
tornado 3
unra@@ 3
sail@@ 3
bilee 3
leton 3
Ike 3
Malaysia 3
No.@@ 3
orph@@ 3
erously 3
bullet@@ 3
49@@ 3
235 3
Dam 3
treat@@ 3
carriage 3
lean@@ 3
ground-@@ 3
placement 3
rop@@ 3
Seventh 3
Raj 3
rugged 3
grac@@ 3
metallic 3
bacteria 3
Kod@@ 3
Hayden 3
onist 3
el-@@ 3
savings 3
Maryland 3
erable 3
Bud 3
Zeal@@ 3
batteries 3
dred 3
Cincinnati 3
Til@@ 3
shrinking 3
Paci@@ 3
Bronx 3
deadline 3
thermore 3
Adolf 3
197@@ 3
discontent 3
Zero 3
small-@@ 3
Cloud 3
Walsh 3
charismatic 3
Bu 3
Constantine 3
Scotland 3
triangle 3
Tex 3
Est@@ 3
31st 3
American-@@ 3
throne 3
Oil 3
Korea 3
lur@@ 3
Saddam 3
Hatch 3
owl 3
Bank@@ 3
strong@@ 3
parody 3
wrapping 3
Milton 3
til@@ 3
Americas 3
hies 3
flames 3
refriger@@ 3
dome 3
moment@@ 3
themes 3
sharply 3
Has@@ 3
eded 3
fles 3
Swiss 3
targets 3
108 3
avian 3
ua 3
rin 3
iners 3
Cox 3
alk@@ 3
agencies 3
Norwegian 3
Paul@@ 3
rance 3
ylon 3
olo 3
liberty 3
Dragons 3
1957 3
84 3
parish 3
Vick@@ 3
blind@@ 3
rewards 3
rots 3
pads 3
rupe@@ 3
stas 3
politicians 3
thal 3
addi@@ 3
crushed 3
Warrior 3
Graham 3
echo@@ 3
Bermuda 3
collaboration 3
Guar@@ 3
Was@@ 3
ority 3
194@@ 3
Epis@@ 3
Yan 3
Toyota 3
2.0 3
slaughter 3
900 3
ingredients 3
Berlin 3
Horn@@ 3
a.m 3
remembers 3
punc@@ 3
blad@@ 3
next-@@ 3
Cir@@ 3
ainer 3
esto 3
enda 3
elic@@ 3
news.com 3
lamp 3
bats 3
ashed 3
cover@@ 3
Jenn@@ 3
Cov@@ 3
Desert 3
haunted 3
Bills 3
surfing 3
tably 3
backgrounds 3
beach@@ 3
Diplom@@ 3
Vaughan 3
competing 3
width 3
rupees 3
combat 3
All-American 3
wholes@@ 3
Pau@@ 3
Jap@@ 3
chers 3
Gon@@ 3
broad 3
fringe 3
swell 3
planted 3
gran@@ 3
discovers 3
nightclub 3
robbed 3
be-@@ 3
Computer 3
Kai@@ 3
engineer 3
Universal 3
hiking 3
liter@@ 3
mated 3
promin@@ 3
aut 3
instruction 3
sailing 3
run-@@ 3
trim 3
operation 3
endor@@ 3
Means 3
Sophie 3
bbed 3
Neal 3
divi@@ 3
Vietnam 3
alleged 3
Nav@@ 3
harassed 3
unanswered 3
Kaf@@ 3
fruit@@ 3
Ludwig 3
gham 3
arming 3
33.@@ 3
Bates 3
murders 3
omo@@ 3
villains 3
draws 3
Public@@ 3
Theater 3
7:30 3
Nevada 3
Honduras 3
threat@@ 3
tham 3
priests 3
ention 3
amar@@ 3
teams 3
consi@@ 3
civil 3
televised 3
onset 3
thereafter 3
statutory 3
ino@@ 3
Peri@@ 3
salvage 3
database 3
Mas@@ 3
balanced 3
adays 3
ande@@ 3
horm@@ 3
resol@@ 3
toler@@ 3
gul@@ 3
Inspector 3
weighted 3
member@@ 3
rung 3
unexpectedly 3
setup 3
ople 3
deaths 3
raids 3
assaults 3
alier 3
recurring 3
padd@@ 3
tner 3
clam@@ 3
permits 3
exclu@@ 3
resentment 3
sage 3
secondary 3
sights 3
There@@ 3
reduction 3
Initi@@ 3
ferences 3
sector 3
predominantly 3
Chambers 3
bitions 3
bounds 3
fortunately 3
sophomore 3
nations 3
billi@@ 3
5,000 3
assment 3
grees 3
condol@@ 3
genes 3
expel 3
acri@@ 3
complaint 3
construc@@ 3
civilian 3
mediator 3
folding 3
pleading 3
consol@@ 3
bookstores 3
tires 3
hike 3
thickness 3
spectives 3
Myr@@ 3
compat@@ 3
aligned 3
weakness 3
blend 3
knives 3
religions 3
Ar 3
enig@@ 3
matic 3
wagons 3
glimpse 3
cere@@ 3
bral 3
museum 3
thly 3
IRS 3
accus@@ 3
Republicans 3
proclaimed 3
steering 3
cautiously 3
outlet 3
medic@@ 3
Romans 3
proposes 3
shua 3
ayal 3
Noble 3
ferring 3
kidnapping 3
once-@@ 3
recre@@ 3
6.5 3
procession 3
shifts 3
specifics 3
pes@@ 3
bors 3
opini@@ 3
awareness 3
groin 3
mold 3
Grade 3
level@@ 3
souls 3
sibility 3
opener 3
tearing 3
opport@@ 3
warranted 3
sail 3
offer@@ 3
contend 3
angr@@ 3
foundations 3
motorcycles 3
proportion 3
simplicity 3
brut@@ 3
Complex 3
Letters 3
clim@@ 3
divide 3
recl@@ 3
embracing 3
defeating 3
Jak@@ 3
accuses 3
Millions 3
kan 3
Palm 3
Liz 3
Europeans 3
Mir@@ 3
Work@@ 3
deployed 3
manipulated 3
Clayton 3
un-@@ 3
poorer 3
commitments 3
oli 3
100-@@ 3
motions 3
expen@@ 3
elry 3
spel 3
bases 3
prospect 3
recreational 3
greeted 3
Vari@@ 3
scenarios 3
glar@@ 3
strengthen 3
intru@@ 3
detectives 3
commenting 3
Wash@@ 3
sensitivity 3
acket 3
6-7 3
flee 3
full-@@ 3
justi@@ 3
pseud@@ 3
Marines 3
opposition 3
acity 3
Arkansas 3
physic@@ 3
achiev@@ 3
rig@@ 3
prevail 3
jur@@ 3
transferred 3
Angelo 3
griev@@ 3
Islam 3
descriptions 3
heavy-@@ 3
discrimination 3
traumatic 3
body@@ 3
eign 3
existent 3
battered 3
advocate 3
leaking 3
disability 3
Vietnamese 3
meth@@ 3
availability 3
weak@@ 3
hefty 3
purchases 3
chall@@ 3
index 3
speedy 3
loans 3
mush@@ 3
Cola 3
tiveness 3
endangered 3
counterparts 3
erected 3
clergy 3
dragging 3
oun 3
sives 3
appointments 3
stunned 3
Luther 3
tobacco 3
Bati@@ 3
traditions 3
auc@@ 3
elders 3
spiral 3
costing 3
prejud@@ 3
focuses 3
insists 3
amping 3
preparation 3
stability 3
penetrate 3
prosperity 3
athletes 3
sentim@@ 3
seafood 3
moderate 3
Grey@@ 3
essly 3
inspire 3
up-@@ 3
Jan. 3
Kun@@ 3
complained 3
idation 3
Const@@ 3
shaft 3
evolved 3
closure 3
radical 3
Patterson 3
dominating 3
lengths 3
voy@@ 3
eur 3
passive 3
grain 3
icop@@ 3
tempor@@ 3
differs 3
clut@@ 3
regul@@ 3
Speci@@ 3
pessi@@ 3
ocr@@ 3
Augusta 3
Britain 3
supreme 3
alarmed 3
Nazi 3
wealthiest 3
supplied 3
demise 3
consequently 3
Piper 3
Pool 3
supported 3
athers 3
Social 3
erve 3
attributed 3
vastly 3
angrily 3
astronom@@ 3
challenged 3
advertised 3
Satellite 3
Navy 3
Link 3
conflicts 3
Standard 3
Jeremy 3
passengers 3
Mozart 3
onwards 3
consisted 3
Arabia 3
Afri@@ 3
halt 3
Jamaica 3
Hitch@@ 3
Baseball 3
duced 3
Shields 3
residing 3
await 3
recordings 3
frequency 3
high-quality 3
Yard 3
deteriorated 3
systems 3
spirited 3
Vision 3
gunfire 3
announce 3
Nigerian 3
positioned 3
metropolitan 3
Croc@@ 3
demonstration 3
lacked 3
Beck@@ 3
escapes 3
ematic 3
Gerald 3
Colorado 3
joked 3
Vent@@ 3
departed 3
automobiles 3
personnel 3
upward 3
congre@@ 3
reviewing 3
exu@@ 3
lodged 3
Kuwait 3
Saint 3
sensi@@ 3
expire 3
alternatives 3
economic 3
Cli@@ 3
preventing 3
exploit 3
Direct 3
antiqu@@ 3
tandem 3
corresponding 3
outcomes 3
criticizing 3
contents 3
zon 3
complement 3
obesity 3
adequately 3
admired 3
\@@ 3
offerings 3
enthusiasts 3
reminder 3
Skating 3
Electronic 3
Pil@@ 3
quantities 3
Buc@@ 3
endured 3
Uni@@ 3
Et@@ 3
duplic@@ 3
fraudulent 3
voiced 3
origins 3
captured 3
symptoms 3
credibility 3
supporter 3
Hak@@ 3
anes@@ 3
GI 3
costumes 3
¢ 3
long-distance 3
tremendous 3
leisure 3
persi@@ 3
fering 3
platform 3
Bach 3
altered 3
acle 3
Stevens 3
grading 3
Ways 3
divided 3
Scientists 3
Kerry 3
rail@@ 3
occurr@@ 3
approxim@@ 3
Hard@@ 3
siveness 3
consisting 3
dental 3
Dillon 3
domain 3
tract 3
policeman 3
FedEx 3
Jacob 3
instruc@@ 3
chaos 3
Richards 3
favorably 3
consumption 3
Thank@@ 3
Patrol 3
Reading 3
Debbie 3
introduc@@ 3
increasingly 3
expense 3
cosme@@ 3
protracted 3
internally 3
largely 3
1950s 3
equipped 3
verified 3
excluded 3
gifted 3
executive 3
unusually 3
fraud 3
barbecue 3
swine 3
arized 3
Communic@@ 3
colleagues 3
dismissed 3
ordeal 3
warrants 3
rewarded 3
Within 3
petition 3
prov@@ 3
testify 3
margin 3
Discovery 3
backward 3
Lex@@ 3
stitu@@ 3
urses 3
extensively 3
forci@@ 3
Sheila 3
ourse 3
garnered 3
Wisconsin 3
Throughout 3
Former 3
Bowling 3
econom@@ 3
resulting 3
Circuit 3
intends 3
separation 3
Disease 3
designated 3
eably 3
tsunami 3
occupation 3
benef@@ 3
succeeding 3
clamation 3
consist 3
notori@@ 3
22-year-old 3
reflected 3
loan 3
zation 3
Esc@@ 3
comprised 3
Indu@@ 3
favoring 3
Moreover 3
considerable 3
rests 3
imposing 3
delivered 3
requiring 3
controversial 3
provoke 3
Nonetheless 3
sively 3
Self-@@ 3
dire 3
induc@@ 3
precise 3
Egyptian 3
Asia 3
counter 3
relied 3
conducted 3
Sparks 3
Sei@@ 3
variation 3
recalled 3
under-@@ 3
upscale 3
estimated 3
concealed 3
ularly 3
intr@@ 3
investigation 3
independence 3
declare 3
desir@@ 3
iliation 3
Returning 3
sustain 3
discussions 3
distinct 3
generating 3
assisting 3
accommodate 3
famili@@ 3
lifelong 3
measurements 3
merit 3
Separ@@ 3
stic 3
attribute 3
resolving 3
18-year-old 3
manipul@@ 3
onstr@@ 3
ussions 3
vigil@@ 3
qualified 3
Acting 3
pursu@@ 3
warmth 3
raises 3
resumed 3
relocate 3
entation 3
cameras 3
parti@@ 3
abide 3
lingering 3
vigorously 3
churches 3
Ernie 3
expenses 3
escalated 3
strengths 3
Thirty-@@ 3
Laws 2
dec 2
waf@@ 2
jas 2
antin@@ 2
estab@@ 2
egal 2
§ 2
erever 2
baugh 2
rat@@ 2
histories 2
Negoti@@ 2
induced 2
tram 2
estan 2
itous 2
Kingston 2
multim@@ 2
aba 2
reckless 2
elles 2
helicopters 2
of-@@ 2
accor@@ 2
Zhang 2
eu 2
Fla. 2
Indianapolis 2
Fac@@ 2
O'Neal 2
ammunition 2
156 2
Newfoundland 2
mountains 2
Mec@@ 2
Reverend 2
yssey 2
Foreman 2
helicopter 2
unks 2
aimed 2
tail@@ 2
euros 2
1907 2
24.@@ 2
Drag@@ 2
expansion 2
dings 2
tism 2
anians 2
Vill@@ 2
20,@@ 2
97.@@ 2
awar@@ 2
arena 2
matory 2
Friedman 2
visitor 2
institu@@ 2
hp 2
secured 2
sorship 2
newsp@@ 2
hunted 2
12-@@ 2
Ellison 2
converted 2
breakdown 2
CBC 2
89@@ 2
bom@@ 2
Sali@@ 2
carved 2
Mount 2
Ivory 2
Porter 2
Charl@@ 2
Gall@@ 2
1800 2
freed@@ 2
avi 2
Turn@@ 2
grav 2
remedy 2
pier 2
Advoc@@ 2
Pach@@ 2
installing 2
Photo 2
vend@@ 2
ext 2
1956 2
Ing@@ 2
ili 2
ahl 2
Political 2
147 2
meters 2
ept@@ 2
rough@@ 2
chuk 2
jet@@ 2
Jama@@ 2
dule 2
7.8 2
eleph@@ 2
Mog@@ 2
Ec@@ 2
1200 2
Shal@@ 2
individu@@ 2
Hast@@ 2
fires 2
Griff@@ 2
AO 2
parach@@ 2
shuttle 2
Minneapolis 2
dramas 2
momentum 2
trucks 2
Sergeant 2
☺ 2
Ori@@ 2
pharmac@@ 2
vacc@@ 2
ographed 2
knock@@ 2
SL 2
Yun@@ 2
Slo@@ 2
estic 2
advi@@ 2
hamm@@ 2
aily 2
'70s 2
bitter@@ 2
SC 2
嘉@@ 2
義@@ 2
人 2
因@@ 2
為@@ 2
綠@@ 2
豆@@ 2
加@@ 2
薏@@ 2
仁 2
righ@@ 2
tist 2
binary 2
memoirs 2
bravery 2
evolution 2
punched 2
Testament 2
quake 2
ergy 2
Kirby 2
ticip@@ 2
cc 2
29-@@ 2
disguised 2
bron@@ 2
consultant 2
antan@@ 2
5.1 2
prose 2
Maurice 2
mob 2
deputy 2
Yorkers 2
reservations 2
guid@@ 2
Sport 2
Mark@@ 2
Os 2
agas@@ 2
Grammar 2
Claude 2
sprayed 2
masses 2
Library 2
frey 2
hostages 2
mits 2
á@@ 2
satire 2
abel 2
adem@@ 2
unda 2
concepts 2
Aurora 2
Convention 2
Visitors 2
Bureau 2
Lama 2
Tanz@@ 2
flat-@@ 2
Student 2
evenings 2
axis 2
sphere 2
abbey 2
oxide 2
emed 2
kley 2
instr@@ 2
ateral 2
aism 2
3-D 2
trainers 2
tad@@ 2
Garrett 2
provision 2
Tig@@ 2
connec@@ 2
pid 2
azi 2
lander 2
1930 2
ary-@@ 2
categ@@ 2
hia 2
wrecked 2
parole 2
.m 2
Octo@@ 2
lieutenant 2
bur 2
slid 2
ilian 2
1904 2
Trophy 2
warr@@ 2
manufac@@ 2
wild@@ 2
cott@@ 2
bic 2
fuse 2
aho 2
eni 2
Surrey 2
arios 2
replica 2
lement 2
Calla@@ 2
Tac@@ 2
inian 2
Christie 2
Rainbow 2
gby 2
1850 2
compu@@ 2
Philips 2
Jacksonville 2
186@@ 2
entrance 2
127 2
ggins 2
Cyber@@ 2
endent 2
atom 2
Apoll@@ 2
critics 2
© 2
guil@@ 2
moist@@ 2
pilots 2
jails 2
68@@ 2
58@@ 2
Wells 2
translates 2
dipped 2
odynam@@ 2
smouth 2
stol 2
NI 2
decoration 2
avan 2
uel 2
Pand@@ 2
kingdom 2
Adv@@ 2
get-@@ 2
evan 2
boiled 2
Corporate 2
streak 2
145 2
Gat@@ 2
solem@@ 2
nominations 2
1936 2
cost@@ 2
ardo 2
uted 2
Rosem@@ 2
syllab@@ 2
tg@@ 2
iland 2
Celtic 2
Noc@@ 2
Arri@@ 2
Roma 2
RB@@ 2
scheduling 2
Austri@@ 2
Schwarzen@@ 2
troops 2
FCC 2
151 2
Nixon 2
Villa 2
Williamson 2
edes 2
icon@@ 2
sketches 2
symbolic 2
fers 2
squeezed 2
certific@@ 2
cle 2
sar 2
builds 2
header 2
uc 2
Pyr@@ 2
Corps 2
105 2
Minority 2
limbs 2
Jen@@ 2
Quincy 2
Ranger 2
3.8 2
spreads 2
clos@@ 2
tdown 2
stitution 2
distribute 2
Post@@ 2
unfinished 2
Pers@@ 2
Patel 2
est-@@ 2
–@@ 2
Helm@@ 2
Condol@@ 2
Mind@@ 2
junction 2
allo 2
Ambassador 2
UNICEF 2
convention 2
loud@@ 2
Mich@@ 2
overy 2
tosh 2
avers 2
saints 2
schedules 2
kidn@@ 2
Prime 2
Cisco 2
Pike 2
analy@@ 2
ffic@@ 2
eor@@ 2
commander 2
199 2
Near 2
runaway 2
sworn 2
ateur 2
gateway 2
engers 2
nursery 2
Rog@@ 2
inmate 2
curator 2
flown 2
folds 2
anist 2
airline 2
job@@ 2
Aval@@ 2
Philip 2
glow 2
usk 2
Honor 2
progr@@ 2
Tas@@ 2
administrator 2
gov@@ 2
Gan@@ 2
pedi@@ 2
atric@@ 2
offices 2
Ip@@ 2
fou@@ 2
electri@@ 2
gram 2
acc 2
Eni@@ 2
ystal 2
niture 2
uki 2
Gy@@ 2
theor@@ 2
Jur@@ 2
assic 2
exits 2
clou@@ 2
repertoire 2
dangers 2
polling 2
Kah@@ 2
Ward 2
feat@@ 2
''I 2
excell@@ 2
datab@@ 2
rington 2
join@@ 2
grid 2
Stark 2
crunch 2
bition 2
denti@@ 2
Ricardo 2
Osaka 2
translator 2
ic-@@ 2
paralyzed 2
Ultim@@ 2
politician 2
MGM 2
Frazier 2
Gren@@ 2
partment 2
rein 2
tags 2
cloning 2
evens 2
mation 2
boil 2
Bever@@ 2
Built 2
Monter@@ 2
mechanics 2
tainted 2
Nig@@ 2
restor@@ 2
rotation 2
asaki 2
2.7 2
tissues 2
Whitman 2
dson 2
203 2
Baghdad 2
birthplace 2
ographs 2
‘ 2
invasion 2
Celtics 2
Jimenez 2
iano 2
ŕ@@ 2
devo@@ 2
liners 2
Schi@@ 2
zophren@@ 2
kos 2
pox 2
N.Y 2
ologue 2
Parts 2
enc 2
vanished 2
prai@@ 2
Romano 2
Yale 2
650 2
rainy 2
Romania 2
Fior@@ 2
NP 2
Australians 2
Holden 2
airman 2
day-@@ 2
leng@@ 2
pilgri@@ 2
Nah@@ 2
polls 2
Kathleen 2
auth@@ 2
Leaf 2
GT@@ 2
Dom@@ 2
servers 2
state@@ 2
Democracy 2
Guard 2
Citi@@ 2
BO 2
attrac@@ 2
sport@@ 2
neph@@ 2
consci@@ 2
Lancaster 2
str 2
Stephanie 2
uta 2
renov@@ 2
reliever 2
Ark@@ 2
postponed 2
unconscious 2
tas 2
Pen 2
204 2
acous@@ 2
Commander 2
urious 2
elight 2
sponsoring 2
Depot 2
dox 2
camoufl@@ 2
Jord@@ 2
color@@ 2
spons@@ 2
crater 2
lef@@ 2
pork 2
Roland 2
confirming 2
Scandinavian 2
abouts 2
Revolution 2
bodyguard 2
aust 2
aris 2
Building 2
column 2
7.3 2
peted 2
Ambro@@ 2
lent 2
Madison 2
infringement 2
Dub@@ 2
dign@@ 2
trek 2
stol@@ 2
recycling 2
aints 2
sation 2
utions 2
buffer 2
demanded 2
Brid@@ 2
Fowler 2
13,000 2
Jaz@@ 2
Galv@@ 2
eston 2
orp 2
partly 2
fragments 2
langu@@ 2
bled 2
abo 2
colonel 2
trak 2
Frost 2
coal 2
Wyoming 2
Archi@@ 2
volumes 2
vaccine 2
Deborah 2
clashes 2
1943 2
graph@@ 2
author@@ 2
VIII 2
Cour@@ 2
fungi 2
ori 2
urch 2
Sierra 2
Humphrey 2
Pasadena 2
30s 2
alam 2
Stafford 2
rav@@ 2
gallons 2
wool 2
interface 2
Flanders 2
6.7 2
Manitoba 2
envel@@ 2
Maple 2
congressman 2
builder 2
PR 2
slices 2
barrels 2
hour@@ 2
outed 2
splitting 2
connects 2
1-6 2
underdog 2
deliver@@ 2
playground 2
booth 2
replacements 2
EC 2
freeway 2
race@@ 2
Shepherd 2
tranqu@@ 2
station@@ 2
soprano 2
Wimbledon 2
struction 2
chant 2
cafeteria 2
Global 2
Montreal 2
rock-@@ 2
Mass 2
Albuquerque 2
ucle@@ 2
Alab@@ 2
cade 2
Vice 2
Leh@@ 2
landmark 2
far-@@ 2
dios 2
river@@ 2
scrip@@ 2
LLC 2
Swan@@ 2
Adventure 2
Traf@@ 2
Stol@@ 2
Tang 2
ucc@@ 2
Non-@@ 2
vans 2
scriptions 2
haul 2
ampton 2
bei 2
BMW 2
welfare 2
Twel@@ 2
contam@@ 2
truc@@ 2
chol@@ 2
jog@@ 2
Jacques 2
Lu 2
Francois 2
sparked 2
3,000 2
engineered 2
sur 2
Fri 2
Muk@@ 2
Jacqu@@ 2
ain-@@ 2
incarnation 2
Californi@@ 2
inspiration 2
Volksw@@ 2
Sanders 2
YD@@ 2
shu 2
sman 2
Rober@@ 2
Across 2
Powers 2
cleric 2
fours 2
Eck@@ 2
26@@ 2
radar 2
spac@@ 2
vian 2
uments 2
livestock 2
cricket 2
Petr@@ 2
Netherlands 2
Norway 2
2.3 2
Val 2
McCl@@ 2
trem@@ 2
bail@@ 2
Webster 2
Leopold 2
wiped 2
uca 2
km@@ 2
promotes 2
Hut@@ 2
wich@@ 2
ordination 2
Isa@@ 2
Fraser 2
Scri@@ 2
Pomer@@ 2
rez 2
quin 2
notorious 2
206 2
dergarten 2
withdrawal 2
Vod@@ 2
bulbs 2
modes 2
Fellowship 2
Labor 2
ega 2
Honda 2
edges 2
ycl@@ 2
Catal@@ 2
ographer 2
Imag@@ 2
lush 2
vern@@ 2
Rudolph 2
290 2
autumn 2
ther-@@ 2
Guin@@ 2
homeowners 2
lodge 2
delegate 2
scattered 2
distributors 2
Pes@@ 2
anski 2
shun@@ 2
Giovanni 2
Ek@@ 2
allies 2
tz@@ 2
hari 2
187 2
Z-@@ 2
carrier 2
Delta 2
knockout 2
enas 2
ancestors 2
Ridge 2
circular 2
fusion 2
efer 2
menti@@ 2
Ball@@ 2
ambi@@ 2
Technical 2
Tenn@@ 2
izon 2
1968 2
70-@@ 2
1951 2
Apollo 2
absor@@ 2
quad@@ 2
portfolio 2
acht 2
adic@@ 2
bara 2
environment@@ 2
weighing 2
digit 2
Conference 2
evasion 2
SB 2
acceptance 2
reversal 2
assembly 2
photography 2
immunity 2
Cooke 2
Scot@@ 2
chman 2
Marco 2
bikes 2
Lines 2
adr@@ 2
bons 2
Canon 2
larvae 2
grazing 2
columns 2
evi@@ 2
bombed 2
Donovan 2
Fisher 2
refl@@ 2
Harper 2
htm@@ 2
albeit 2
ultr@@ 2
mingham 2
Butler 2
Teachers 2
ainers 2
chopped 2
kas 2
1921 2
Rebecca 2
mati@@ 2
iner@@ 2
Stew@@ 2
projection 2
Galaxy 2
izing 2
Johns 2
Heavyweight 2
Gallery 2
tucked 2
Kline 2
intern@@ 2
fastball 2
renamed 2
narr@@ 2
diction 2
gla@@ 2
phys@@ 2
sidewalk 2
Dw@@ 2
Charity 2
unanimous 2
reflecting 2
Know@@ 2
200,000 2
113 2
intervals 2
Springs 2
Gore 2
ine-@@ 2
ube 2
olding 2
Gail 2
top-@@ 2
8.2 2
cruising 2
ambassadors 2
Floo@@ 2
symbols 2
Cler@@ 2
12,@@ 2
64@@ 2
ities 2
fri 2
conson@@ 2
Gardens 2
realism 2
Putin 2
Tunnel 2
15,@@ 2
dul 2
critic 2
Negro 2
è@@ 2
Farmer 2
Fabio 2
marble 2
bankrupt 2
Challenge 2
presenter 2
Strateg@@ 2
130 2
licensed 2
defending 2
Hali@@ 2
wells 2
tow 2
intensity 2
internationally 2
Loy@@ 2
5000 2
Bank 2
Schwartz 2
altar 2
Holloway 2
Math@@ 2
adjusting 2
post-war 2
Rin@@ 2
anni 2
exposing 2
CF@@ 2
reactor 2
um-@@ 2
Yar@@ 2
dubbed 2
sworth 2
1882 2
indoor 2
Cof@@ 2
bn 2
openings 2
Fortun@@ 2
raided 2
167 2
6/@@ 2
Amp@@ 2
yon 2
Cran@@ 2
115 2
Gloria 2
exam@@ 2
replay 2
Sovi@@ 2
asser 2
stocks 2
Lexington 2
Lords 2
corpses 2
navi@@ 2
Co. 2
202 2
Ox@@ 2
traced 2
Gong 2
25,@@ 2
rebellion 2
Derby 2
elec@@ 2
corrup@@ 2
afflic@@ 2
tribe 2
Habi@@ 2
ainment 2
paragrap@@ 2
pus 2
raced 2
testim@@ 2
Finals 2
Quarter 2
Johann@@ 2
identifies 2
bas 2
Anaheim 2
Joint 2
clearance 2
SB@@ 2
Ivy 2
infamous 2
Peti@@ 2
astered 2
Victor 2
Tang@@ 2
program@@ 2
isl@@ 2
arson 2
Zhu 2
Sands 2
tour@@ 2
Mead@@ 2
capita 2
Fis@@ 2
ffled 2
enga 2
gu 2
finalist 2
aney 2
eroy 2
Lac@@ 2
Dresden 2
tilla 2
orities 2
Rebec@@ 2
Table 2
Reggie 2
34.@@ 2
goddess 2
6.4 2
Gibbs 2
leen 2
UBS 2
ador 2
bis@@ 2
KO 2
Tag@@ 2
vivid 2
buyer 2
marker 2
UNH@@ 2
inn 2
Glas@@ 2
aluminum 2
operators 2
Syrian 2
sionist 2
experts 2
esville 2
oui 2
Emili@@ 2
akh@@ 2
pur 2
wick 2
Mitch 2
blaze 2
reserv@@ 2
oirs 2
dor 2
surg@@ 2
ectors 2
10.5 2
arri 2
bious 2
hardware 2
melo@@ 2
dominated 2
masked 2
rulers 2
Melbourne 2
handic@@ 2
chron@@ 2
Ryder 2
proudly 2
rett 2
devastating 2
criticized 2
melting 2
elimination 2
flats 2
Bahrain 2
scand@@ 2
blocked 2
enos 2
River@@ 2
CV@@ 2
short-term 2
Bristol 2
Barrett 2
gradu@@ 2
urer 2
Geneva 2
accountant 2
O'Con@@ 2
Reynolds 2
embedded 2
drome 2
hurst 2
bridges 2
ansas 2
Tara 2
Reid 2
Satell@@ 2
bans 2
beams 2
staged 2
160 2
Canal 2
vessels 2
iley 2
folded 2
goalie 2
rains 2
desktop 2
escor@@ 2
2009 2
budgets 2
pros 2
functional 2
Kmart 2
surrender 2
Admiral 2
gras@@ 2
ched@@ 2
hl 2
quartet 2
northern 2
Mets 2
enburg 2
agreements 2
Wembley 2
stemmed 2
contracts 2
awk@@ 2
runner@@ 2
recess 2
Cz@@ 2
deprived 2
Zh@@ 2
Chen 2
balcony 2
rit 2
crushing 2
Wai@@ 2
shep@@ 2
accidents 2
Bengali 2
Ave@@ 2
capsu@@ 2
Thai 2
pedestrian 2
itted 2
kner 2
Cecil 2
beds 2
dine 2
Lof@@ 2
representing 2
superi@@ 2
275 2
weakened 2
ramp 2
cattle 2
timeline 2
engineering 2
Wagner 2
Eugene 2
entre@@ 2
mater@@ 2
platforms 2
Bruno 2
CS 2
Cornell 2
onage 2
Kob@@ 2
ammed 2
fleet 2
Rivera 2
cue 2
inel 2
Ana 2
SOUR@@ 2
Capt 2
Mohammad 2
sprained 2
elim@@ 2
Concert 2
countless 2
17.@@ 2
vik 2
Till@@ 2
Zak@@ 2
researcher 2
Prepar@@ 2
alp@@ 2
orders 2
Clarke 2
incentives 2
flag@@ 2
325 2
arrell 2
recruit 2
quell 2
Buddha 2
rove 2
vacation@@ 2
charging 2
zarre 2
badge 2
passenger 2
1812 2
Wolves 2
Sofia 2
advisory 2
principal 2
counters 2
116 2
eria 2
Han@@ 2
Hez@@ 2
Marcel 2
McCar@@ 2
neys 2
Krishna 2
tage 2
Finland 2
extensions 2
Victory 2
Delhi 2
Lucia 2
Traffic 2
Kre@@ 2
Pak@@ 2
slaying 2
reopened 2
Glasgow 2
ull@@ 2
recounts 2
Area 2
eclec@@ 2
128 2
monthly 2
agents 2
trails 2
psychiat@@ 2
rists 2
market@@ 2
Weekly 2
Prophet 2
Critics 2
Benz 2
topped 2
1947 2
Favre 2
decl@@ 2
scientific 2
commercially 2
success@@ 2
Afric@@ 2
asco 2
sew@@ 2
capsule 2
turer 2
6-year-old 2
Notes 2
Erik 2
elic 2
argo 2
Ban 2
usen 2
oco 2
zu 2
sinking 2
compression 2
Tsu@@ 2
zuki 2
oka 2
scan@@ 2
Fen@@ 2
Walter 2
locals 2
Plains 2
Oakland 2
48-@@ 2
Karl 2
Ston@@ 2
Sinclair 2
enhancing 2
hurricane 2
invent@@ 2
muddy 2
Hull 2
Crawford 2
Principal 2
Og@@ 2
poet 2
Lab 2
Typ@@ 2
1.3 2
syl@@ 2
andez 2
Islands 2
lum@@ 2
disabilities 2
sampling 2
upstate 2
Ps 2
onically 2
6,000 2
regi@@ 2
foss@@ 2
spaw@@ 2
farms 2
abuses 2
cruci@@ 2
restrictions 2
voluntarily 2
dev 2
Thirty 2
left-@@ 2
118 2
bagg@@ 2
sailed 2
appropri@@ 2
posit 2
inserted 2
fabric@@ 2
49-@@ 2
aise 2
Dodge 2
Marathon 2
mirr@@ 2
solitary 2
reinforce 2
packaged 2
envisioned 2
gul 2
economically 2
nod 2
gravel 2
1.4 2
servant 2
ratio 2
itory 2
PK@@ 2
US-@@ 2
Washing@@ 2
goti@@ 2
orda 2
amateur 2
archive 2
driv@@ 2
Oct. 2
soph@@ 2
Wedn@@ 2
collateral 2
friction 2
attractions 2
MT@@ 2
Russians 2
alizes 2
assistant 2
este@@ 2
lumber 2
cloth 2
surrendered 2
efs 2
Isle 2
soldier 2
20,000 2
curve 2
year-olds 2
Acts 2
conquest 2
identifying 2
floo@@ 2
sight@@ 2
43.@@ 2
Wen 2
tribal 2
Aviation 2
AB 2
district 2
Approxim@@ 2
Chat@@ 2
inscription 2
killings 2
Virg@@ 2
Raf@@ 2
pitted 2
ogen@@ 2
hostile 2
undo 2
compil@@ 2
confin@@ 2
usal 2
dairy 2
businesses 2
owers 2
etr 2
smokers 2
aggre@@ 2
Salt 2
itarian 2
Groups 2
citizenship 2
bottled 2
socialist 2
accusations 2
same-sex 2
tantly 2
Cron@@ 2
resist@@ 2
Braz@@ 2
Margaret 2
Lik@@ 2
Managing 2
aband@@ 2
demoli@@ 2
encoded 2
frustr@@ 2
Even@@ 2
tables@@ 2
routing 2
Cadillac 2
leigh 2
Coul@@ 2
sider 2
s-on 2
Test 2
teachings 2
phic 2
cong@@ 2
liqu@@ 2
depended 2
shrink 2
600,000 2
Kazakhstan 2
siah 2
fossil 2
remnants 2
NH@@ 2
mobil@@ 2
shal 2
trou@@ 2
atitude 2
ripe 2
geries 2
ingu@@ 2
ford@@ 2
mortgage 2
gress 2
stationed 2
amend 2
sever@@ 2
invading 2
tie@@ 2
missionary 2
variable 2
reclaim 2
real-@@ 2
Jal@@ 2
Bak@@ 2
Respon@@ 2
meditation 2
developments 2
MOVED 2
optional 2
Battery 2
defl@@ 2
democr@@ 2
ogical 2
2010 2
achievement 2
Barr@@ 2
stafa 2
swir@@ 2
Skin@@ 2
Curr@@ 2
46.@@ 2
ā@@ 2
ə@@ 2
fumble 2
inevitably 2
Sidney 2
bounced 2
tun 2
shortage 2
warmed 2
minors 2
spree 2
disturbance 2
treatments 2
sors 2
Dud@@ 2
sunk 2
grim 2
30,000 2
bouts 2
structures 2
tings 2
civili@@ 2
grab@@ 2
anova 2
battlefield 2
offset 2
Independent 2
roofs 2
asc@@ 2
civilization 2
gymn@@ 2
aska 2
recognizing 2
Jagu@@ 2
pitchers 2
sel 2
essay 2
gymnastics 2
ingredient 2
investigators 2
Braves 2
lawsuits 2
swollen 2
Ironically 2
casu@@ 2
cardinal 2
adi 2
onor 2
187@@ 2
securing 2
diploma 2
outsider 2
eldest 2
16-@@ 2
uries 2
Admir@@ 2
185 2
markers 2
rew@@ 2
Sao 2
delaying 2
managers 2
apartments 2
angu@@ 2
Jupiter 2
reform 2
Zap@@ 2
honored 2
Bowden 2
selective 2
Marin 2
surr@@ 2
marty@@ 2
Beth@@ 2
disturb@@ 2
noting 2
eleg@@ 2
volunte@@ 2
prolonged 2
caretaker 2
V. 2
fertile 2
inges 2
expe@@ 2
zar@@ 2
torn@@ 2
adoes 2
Austr@@ 2
lecture 2
perform@@ 2
compul@@ 2
billionaire 2
spirit@@ 2
dedication 2
traps 2
bec 2
accep@@ 2
year-@@ 2
statues 2
nus 2
tapped 2
Institute 2
wines 2
firing 2
pens 2
119 2
posts 2
Energy 2
mitt 2
agan 2
still@@ 2
reformed 2
incl@@ 2
stationary 2
secrecy 2
visa 2
Howell 2
vering 2
sition 2
great-@@ 2
ropes 2
murdering 2
Gad@@ 2
abortions 2
Chamber@@ 2
Rodham 2
medium-@@ 2
Schneider 2
etro@@ 2
†@@ 2
veteran 2
aissance 2
threat 2
staircase 2
elists 2
irri@@ 2
chool 2
Community 2
vings 2
believ 2
versary 2
Lef@@ 2
Fish@@ 2
zzi 2
irony 2
irregular 2
awa@@ 2
soaked 2
branch 2
trim@@ 2
unted 2
sprink@@ 2
stiff@@ 2
Services 2
crosses 2
reasonably 2
turmoil 2
ogist 2
ber-@@ 2
ration 2
insi@@ 2
emia 2
visit@@ 2
Yas@@ 2
Okinawa 2
honor@@ 2
zai 2
resent@@ 2
t-up 2
baking 2
converting 2
leasing 2
gardens 2
boar@@ 2
chem@@ 2
lid 2
vices 2
indirectly 2
apes 2
tigh@@ 2
deploy 2
snapped 2
arsen@@ 2
assor@@ 2
honoring 2
spur 2
tillo 2
One@@ 2
onships 2
reproduction 2
Bes@@ 2
annual 2
experiments 2
swept 2
supervi@@ 2
sured 2
agg 2
explicitly 2
terrorist 2
Chapman 2
premises 2
middle-@@ 2
sank 2
fications 2
nationality 2
ponent 2
Rita 2
disciplined 2
Carlton 2
2015 2
structure 2
chronic 2
similarities 2
passages 2
additions 2
Manager 2
BBC 2
Training 2
Kav@@ 2
Chand@@ 2
Eg@@ 2
vegetable 2
Titans 2
http 2
idate 2
Punj@@ 2
Dani@@ 2
executed 2
Kan@@ 2
Jeffrey 2
Shield 2
recovering 2
esque 2
Bet@@ 2
adapt 2
Mori@@ 2
dissolved 2
Nym@@ 2
ouring 2
centimeters 2
damages 2
Pier 2
diffic@@ 2
Sev@@ 2
disbanded 2
Dah@@ 2
Vas@@ 2
Jor@@ 2
acies 2
hoods 2
implement 2
external 2
reduces 2
Freedom 2
Elli@@ 2
tying 2
Gut@@ 2
deposit 2
Harvard 2
portrayal 2
leaning 2
Longhorns 2
electronically 2
disgr@@ 2
Jets 2
Union 2
theatrical 2
Corpor@@ 2
family-@@ 2
Families 2
Shortly 2
hamlet 2
azines 2
atoes 2
method@@ 2
Mills 2
Opening 2
Spider-Man 2
Evol@@ 2
whereabouts 2
Irwin 2
occupies 2
Baldwin 2
entities 2
Jef@@ 2
istic@@ 2
Foo@@ 2
Kru@@ 2
Emperor 2
classroom 2
international 2
Barber 2
Anth@@ 2
rax 2
boundary 2
undergone 2
mentation 2
Madagascar 2
renewed 2
aesthetic 2
tuous 2
Ultimate 2
-related 2
Boris 2
Tyson 2
16-year-old 2
T-shirts 2
prevented 2
contempt 2
1965 2
Poll@@ 2
Armenian 2
Arabs 2
accessed 2
ten-@@ 2
speeding 2
introduces 2
conditions 2
Professional 2
authored 2
Hind@@ 2
Louise 2
reserve 2
Jobs 2
Coca-Cola 2
Solid@@ 2
Access 2
controller 2
Hok@@ 2
Scottish 2
Portuguese 2
patrons 2
yield 2
conception 2
diagnosed 2
Cot@@ 2
bilities 2
decades 2
16th 2
Idaho 2
gains 2
insufficient 2
Dominican 2
poorest 2
marking 2
Kris 2
Soci@@ 2
blers 2
Clau@@ 2
effec@@ 2
Beginning 2
Far 2
definitions 2
ism@@ 2
Phili@@ 2
norms 2
dimini@@ 2
operates 2
gratitude 2
candidate 2
Crown 2
assemble 2
ownership 2
resign 2
erratic 2
scarce 2
Similarly 2
effectiveness 2
ringing 2
sunlight 2
affirmed 2
sues 2
1950 2
damp@@ 2
Kell@@ 2
Tay@@ 2
Roman 2
orie 2
enhanced 2
Al-@@ 2
Saudi 2
patriotic 2
consumers 2
capac@@ 2
Numerous 2
Carlo 2
Roman@@ 2
Ken 2
sures 2
Bin@@ 2
Bol@@ 2
attained 2
Cast@@ 2
William@@ 2
unidentified 2
distinc@@ 2
Motorola 2
Chri@@ 2
Clive 2
cemetery 2
Falcon 2
Pey@@ 2
urity 2
aspiring 2
marvel@@ 2
terior 2
Grim@@ 2
500@@ 2
ordering 2
descrip@@ 2
manufacturers 2
Dell 2
terrified 2
Register 2
Shah@@ 2
noble 2
declared 2
sionary 2
Vera 2
stray 2
icket 2
10-year-old 2
founding 2
ires 2
Foun@@ 2
intentional 2
petitions 2
less-@@ 2
than-@@ 2
customary 2
respond@@ 2
porting 2
specialized 2
accum@@ 2
Beethoven 2
Parsons 2
Fol@@ 2
emerges 2
collections 2
objections 2
counter@@ 2
Mah@@ 2
isely 2
August@@ 2
invade 2
gated 2
eptions 2
ulent 2
guides 2
Minn@@ 2
Polish 2
confirmation 2
Motion 2
retailer 2
surpassed 2
Electronics 2
Bran@@ 2
Carl@@ 2
Singh 2
preaching 2
Rex 2
deficit 2
discusses 2
impacts 2
Burnett 2
Heroes 2
depiction 2
Ce@@ 2
Calderon 2
retri@@ 2
signature 2
advantages 2
aggravated 2
stake 2
Wag@@ 2
Enter@@ 2
Sport@@ 2
Proc@@ 2
critic@@ 2
izes 2
nicknamed 2
inherited 2
Prin@@ 2
Norton 2
infinite 2
diversified 2
births 2
farewell 2
mandatory 2
reduced 2
optical 2
resem@@ 2
cultiv@@ 2
Rus@@ 2
conut 2
parameters 2
carbohydr@@ 2
vacu@@ 2
flatt@@ 2
premiered 2
Chief 2
undergo 2
ambul@@ 2
chiev@@ 2
discounted 2
succession 2
prac@@ 2
Medi@@ 2
valued 2
songwriter 2
notified 2
interpreted 2
Giant 2
adverse 2
mistakenly 2
Malay@@ 2
law-@@ 2
sentiments 2
pread 2
fraternity 2
uncertainty 2
gres@@ 2
represented 2
upbeat 2
foli@@ 2
extra@@ 2
prevalent 2
expan@@ 2
progressed 2
employees 2
trum 2
Adi@@ 2
CB 2
conceived 2
clearing 2
Glenn 2
renowned 2
critically 2
benefic@@ 2
conducting 2
detect 2
Performing 2
awarded 2
profitable 2
mushrooms 2
Saf@@ 2
evacuate 2
Wesley 2
Tou@@ 2
activ@@ 2
Milan 2
jurors 2
validity 2
Manila 2
Rooney 2
Bernard 2
lishment 2
unsafe 2
dealings 2
Tel 2
translations 2
assass@@ 2
Var@@ 2
circul@@ 2
Meeting 2
yearly 2
improvi@@ 2
crowned 2
Tour 2
spectacle 2
Tol@@ 2
Birmingham 2
disabled 2
althy 2
rapidly 2
runners 2
compelling 2
extraction 2
Rochester 2
trauma 2
persuaded 2
graphics 2
mitted 2
opposing 2
barbec@@ 2
Sheffield 2
Doc@@ 2
wand@@ 2
recognition 2
Past 2
Ore@@ 2
Ducks 2
wider 2
upgrade 2
Brock 2
Clan 2
deeds 2
inclusion 2
communist 2
electrical 2
amphet@@ 2
hardship 2
coverage 2
disrupt 2
Mirror 2
Investig@@ 2
victories 2
Lar@@ 2
posure 2
Dozens 2
Jamaican 2
examining 2
forge 2
themed 2
inflated 2
vigorous 2
Rio 2
brew 2
astically 2
tenance 2
invest@@ 2
riages 2
reservation 2
lain 2
-to-@@ 2
Flames 2
Holland 2
Government 2
Wei 2
industri@@ 2
Martha 2
initiated 2
Brook 2
Chan@@ 2
tili@@ 2
ulary 2
legi@@ 2
pare 2
Dexter 2
lotted 2
overdue 2
vehicles 2
imprisonment 2
innovative 2
ogni@@ 2
Rodman 2
two-hour 2
impoverished 2
impas@@ 2
delu@@ 2
resided 2
discarded 2
interference 2
descending 2
redund@@ 2
emerge 2
24-hour 2
demonstrating 2
charitable 2
stem 2
Brooklyn 2
enic 2
exaggerated 2
lackluster 2
Pakistan 2
energi@@ 2
stry 2
long-@@ 2
LG@@ 2
feasible 2
Hewitt 2
Atlantic 2
varied 2
compromised 2
ideals 2
prompt 2
reacted 2
Turkey 2
Bucks 2
assumes 2
triumph 2
reminis@@ 2
relent@@ 2
ization 2
deliberately 2
offenders 2
scheme 2
gible 2
attitudes 2
flav@@ 2
unsuccessfully 2
dimensions 2
Manchester 2
departing 2
concludes 2
idable 2
Ferrari 2
diminish 2
lop 2
suf@@ 2
conveni@@ 2
low-cost 2
27-@@ 2
stresses 2
withdraw 2
diver@@ 2
miniature 2
incomplete 2
ellation 2
restrained 2
bited 2
cuisine 2
simultaneous 2
synon@@ 2
Gaz@@ 2
Consul@@ 2
fically 2
prohibited 2
proposition 2
alien@@ 2
assignments 2
dissolution 2
Commit@@ 2
raged 2
delivering 2
participation 2
conjunction 2
resili@@ 2
leadership 2
deterior@@ 2
inherent 2
teammate 2
witn@@ 2
destro@@ 2
delivers 2
implic@@ 2
negl@@ 2
schooling 2
futures 2
titudes 2
14-year-old 2
complexity 2
stitutes 2
jeopardi@@ 2
associ@@ 2
wrongdoing 2
sought 2
PC@@ 2
constitutes 2
accomplishments 2
reversed 2
harassment 2
improves 2
aggres@@ 2
certi@@ 2
ensuring 2
assurance 2
elier 2
spur@@ 2
correction 2
Particip@@ 2
scrutiny 2
elusive 2
Kay@@ 2
refusing 2
advises 2
merc@@ 2
precautions 2
analog@@ 2
Leigh 2
guardian 2
struggles 2
rehabilitation 2
light-@@ 2
prospects 2
versely 2
fraud@@ 2
tant 2
specializing 2
alism 2
Evi@@ 2
affirm@@ 2
concede 2
detached 2
emphasis 2
arrangements 2
recognizes 2
fiercely 2
retreat 2
conservatives 2
accordance 2
signific@@ 2
ant-@@ 2
occupying 2
valence 2
finance 2
decrease 2
prepar@@ 2
Communication 2
forwar@@ 2
Occup@@ 2
enlarged 2
independently 2
contributed 2
eti@@ 2
quette 2
residency 2
catastrophe 2
connecting 2
escorted 2
ellate 2
suspects 2
measurement 2
ambitious 2
pires 2
clandestine 2
aggressively 2
confession 2
advancing 2
™ 2
insist@@ 2
covert 2
Presidents 2
wn 1
ƒ@@ 1
Ü@@ 1
Ä@@ 1
§@@ 1
achment 1
Ind@@ 1
½ 1
Chr@@ 1
len 1
Mich. 1
uba 1
í@@ 1
calculation 1
Mali 1
train@@ 1
velt 1
mism 1
eters 1
cion 1
physics 1
suburbs 1
Y. 1
oko 1
Northwest 1
Hw@@ 1
propag@@ 1
tec 1
Hans 1
Pack@@ 1
aku 1
ui 1
lung 1
entina 1
follow@@ 1
umental 1
eagle 1
ardi 1
acion 1
Classical 1
violating 1
pillar 1
Pla@@ 1
blitz 1
rode 1
neur@@ 1
vint@@ 1
ongh@@ 1
Dav 1
urn 1
stacked 1
Dirk 1
Benedict 1
Politics 1
Ath@@ 1
emost 1
tric 1
apa 1
unle@@ 1
biologist 1
township 1
Fic@@ 1
ras 1
exile 1
Prob@@ 1
config@@ 1
influ@@ 1
amus@@ 1
neigh@@ 1
effer 1
hero@@ 1
anthrax 1
garrison 1
Tau@@ 1
ballo@@ 1
kina 1
contribution 1
hawks 1
eged 1
EMA 1
berger 1
orado 1
MW 1
INGTON 1
tyr@@ 1
comple@@ 1
tipped 1
lagh@@ 1
educ@@ 1
skier 1
northwestern 1
busin@@ 1
funding 1
Tour@@ 1
ograph@@ 1
adelp@@ 1
Meri@@ 1
trical 1
-10 1
restart 1
PD 1
2.8 1
crisp 1
brigade 1
Rele@@ 1
Oli@@ 1
v. 1
Muslims 1
nutri@@ 1
fert 1
guel 1
competi@@ 1
survi@@ 1
km 1
soe 1
sociology 1
juana 1
arie 1
rack@@ 1
gery 1
ruling 1
SR 1
uson 1
ITA 1
united 1
business@@ 1
annu@@ 1
radios 1
exodus 1
evolving 1
emic 1
omery 1
Flor@@ 1
villa 1
NHL 1
Kab@@ 1
œ@@ 1
extra-@@ 1
zhou 1
hak 1
note@@ 1
shaken 1
rail 1
specified 1
scho@@ 1
brilli@@ 1
Cass@@ 1
videot@@ 1
fle 1
49.@@ 1
cris@@ 1
symbol@@ 1
crest 1
Duc@@ 1
olan 1
etes 1
uit 1
midway 1
membrane 1
Geo@@ 1
Premi@@ 1
longtime 1
Thorn@@ 1
battle@@ 1
hind 1
Mid-@@ 1
Lis@@ 1
pay-@@ 1
dru 1
kni@@ 1
MR@@ 1
nex@@ 1
dges 1
wi 1
unarmed 1
5.9 1
sch 1
wides@@ 1
Pon@@ 1
compet@@ 1
marred 1
74 1
» 1
''The 1
Patt@@ 1
Clin@@ 1
Esp@@ 1
neutr@@ 1
convertible 1
rivers 1
27.@@ 1
Lok@@ 1
chai 1
debts 1
Gur@@ 1
olla 1
predicting 1
aldo 1
housed 1
theatr@@ 1
oir 1
shima 1
withdraw@@ 1
tball 1
servic@@ 1
giants 1
memor@@ 1
Chem@@ 1
vacancy 1
1880s 1
16.@@ 1
INC 1
Local 1
Rach@@ 1
EU 1
firefighter 1
oba 1
nearing 1
ingh@@ 1
ity-@@ 1
Herr 1
bott 1
NATO@@ 1
ouk 1
Pras@@ 1
bursts 1
à 1
26,@@ 1
Nur@@ 1
˝@@ 1
˝ 1
aal 1
freight 1
itors 1
Asked 1
ael 1
platoon 1
comfortably 1
forests 1
workshop 1
oed 1
AIG 1
keted 1
ections 1
Hid@@ 1
Volunte@@ 1
illon 1
arra 1
arin 1
biology 1
uter@@ 1
htt@@ 1
Program 1
dinos@@ 1
Scha@@ 1
s-up 1
spear@@ 1
catalyst 1
wages 1
Griffith 1
Abo@@ 1
conditioning 1
Camp@@ 1
unciation 1
swiftly 1
icho 1
Distribu@@ 1
ware@@ 1
9:@@ 1
trad@@ 1
intosh 1
pharm@@ 1
kan@@ 1
annel 1
wh 1
Whar@@ 1
Tucson 1
esser 1
UC 1
Madd@@ 1
von 1
hurricanes 1
thia 1
bunker 1
Town@@ 1
plas@@ 1
Jin@@ 1
iman 1
Alexand@@ 1
Calif 1
fog 1
end-@@ 1
tingly 1
sugg@@ 1
contractor 1
plea 1
concer@@ 1
goers 1
Cal 1
summit 1
hiring 1
Hitchcock 1
Sacramento 1
teen-age 1
tex 1
turf 1
grief 1
ey-@@ 1
bank@@ 1
Released 1
requi@@ 1
£ 1
fram@@ 1
ovo 1
Wide 1
Salv@@ 1
sic 1
pumps 1
igi 1
refri@@ 1
antine 1
Zealand 1
destroyers 1
195@@ 1
heaviest 1
Brendan 1
ambu@@ 1
detention 1
nuclear@@ 1
northeast 1
dispens@@ 1
vil 1
elsen 1
► 1
λ 1
◄ 1
-free 1
owning 1
With@@ 1
metres 1
springs 1
offin 1
blogs 1
Moun@@ 1
referees 1
ici 1
iti@@ 1
meted 1
glimp@@ 1
maps 1
embr 1
rogue 1
traders 1
Æ 1
س@@ 1
ا@@ 1
م@@ 1
ه 1
swit@@ 1
zer@@ 1
Inno@@ 1
inactive 1
terrori@@ 1
· 1
Pra@@ 1
outsiders 1
construction 1
explor@@ 1
organi@@ 1
esthood 1
defunct 1
NR@@ 1
,000-@@ 1
45-@@ 1
Disco@@ 1
aqu 1
leaf@@ 1
elty 1
lax 1
generals 1
majors 1
manufactured 1
ristan 1
smen 1
Rwanda 1
hospit@@ 1
Cath@@ 1
aca 1
Exhibition 1
Mouss@@ 1
Sic@@ 1
Spre@@ 1
tradem@@ 1
immigr@@ 1
steroid 1
steam@@ 1
histor@@ 1
ung-@@ 1
ow-@@ 1
funn@@ 1
therland 1
bour 1
ocide 1
endon 1
senti 1
instein 1
Abr@@ 1
winger 1
TRIB@@ 1
hya 1
adesh 1
¿ 1
insider 1
kage 1
town@@ 1
publicist 1
collapse 1
osi 1
76@@ 1
antes 1
Stan@@ 1
eage 1
medieval 1
tortured 1
Writer 1
warri@@ 1
besi@@ 1
fronts 1
tradi@@ 1
200-@@ 1
hij@@ 1
tomatoes 1
peace@@ 1
nom 1
south-@@ 1
oted 1
Princ@@ 1
Aar@@ 1
disclosed 1
bri 1
commanded 1
compar@@ 1
como@@ 1
rank@@ 1
bench@@ 1
Steph@@ 1
Cho@@ 1
aurs 1
gover@@ 1
prejudice 1
luc 1
dozens 1
incen@@ 1
markets 1
announc@@ 1
standings 1
Shari@@ 1
Amer@@ 1
vand@@ 1
prison@@ 1
liberties 1
historical 1
1,9@@ 1
late-@@ 1
VP 1
heim 1
eij@@ 1
ound-@@ 1
Lim 1
fail@@ 1
¹ 1
oples 1
Pie@@ 1
trous@@ 1
repres@@ 1
Sto@@ 1
hua 1
allah 1
ois 1
fractured 1
1500 1
Hog@@ 1
13.@@ 1
harvest 1
crip@@ 1
nuc@@ 1
estim@@ 1
clans 1
orth@@ 1
eco 1
invari@@ 1
modify 1
ssen 1
comput@@ 1
Xi@@ 1
ù 1
ong-@@ 1
a-based 1
travelers 1
youths 1
iseum 1
SI 1
anco 1
jung 1
stori@@ 1
chez 1
Quality 1
2-1 1
Hir@@ 1
sparking 1
timate 1
isers 1
emperor 1
croft 1
Sadd@@ 1
Commercial 1
Opp@@ 1
circuit 1
Mexic@@ 1
jin 1
cavalry 1
Micro@@ 1
cooperation 1
ident 1
enness 1
tsun@@ 1
appoin@@ 1
face-@@ 1
♡@@ 1
dren 1
athon 1
dup 1
3-3 1
struc@@ 1
saves 1
caste 1
ministry 1
Presid@@ 1
♥@@ 1
pence 1
palace 1
oak 1
quarter@@ 1
adian 1
ported 1
oway 1
moths 1
economy 1
ad-@@ 1
hier@@ 1
salaries 1
neighbor@@ 1
cycl@@ 1
orbital 1
Wol@@ 1
programme 1
Official 1
horizontal 1
Wah@@ 1
imaging 1
patented 1
centre 1
Divine 1
anke 1
stack 1
advertis@@ 1
correc@@ 1
plot@@ 1
Operating 1
Wend@@ 1
Vil@@ 1
ei 1
defected 1
21-@@ 1
Evening 1
60-@@ 1
pact 1
editors 1
eruption 1
Expo 1
Mani@@ 1
stra 1
rella 1
132 1
scul@@ 1
1,3@@ 1
journalism 1
kai@@ 1
commissioner 1
jeop@@ 1
Kitch@@ 1
gua 1
á 1
1/4 1
Cent@@ 1
farm@@ 1
viously 1
Amar@@ 1
cocktail 1
bered 1
curved 1
ensued 1
unities 1
sm 1
mined 1
sacrifices 1
stretching 1
400@@ 1
3-6 1
day-to-day 1
teen-ager 1
•@@ 1
becom@@ 1
gence 1
first-@@ 1
chandi@@ 1
ege 1
obi@@ 1
design@@ 1
reve@@ 1
perimeter 1
gow 1
coaching 1
energe@@ 1
tur 1
phenomena 1
indirect 1
uth 1
fr 1
1.0 1
donated 1
despair 1
upright 1
acia 1
0.3 1
lavish 1
autom@@ 1
widespread 1
aspec@@ 1
scoring 1
Hawai@@ 1
persisted 1
woes 1
lac@@ 1
sip@@ 1
unil@@ 1
sealed 1
much-@@ 1
Bath 1
Interest 1
linger 1
mos@@ 1
envi@@ 1
ocl@@ 1
uli 1
SOURCES 1
thir 1
exag@@ 1
Gru@@ 1
chemi@@ 1
card@@ 1
1/ 1
chemicals 1
rei@@ 1
Wel@@ 1
sket@@ 1
Arts 1
vani@@ 1
enlarg@@ 1
pounding 1
still-@@ 1
downed 1
price-@@ 1
issu@@ 1
7.5 1
scram@@ 1
grin@@ 1
cous@@ 1
sionate 1
asse 1
negoti@@ 1
恭@@ 1
喜@@ 1
發@@ 1
財 1
Ut@@ 1
exhi@@ 1
Gross@@ 1
grove 1
easing 1
footed 1
appar@@ 1
ayton 1
derivative 1
essy 1
insp@@ 1
countered 1
organised 1
bowled 1
palm 1
organ@@ 1
restriction 1
hurdle 1
acti 1
agen 1
Gul 1
ro-@@ 1
adm@@ 1
lap@@ 1
insisting 1
eney 1
brakes 1
orca 1
posite 1
roof@@ 1
Sut@@ 1
NB@@ 1
heightened 1
jected 1
mailed 1
nai@@ 1
opoli@@ 1
spine 1
thanked 1
planes 1
organisms 1
rea 1
polic@@ 1
134 1
lux@@ 1
strike@@ 1
certificates 1
schem@@ 1
contro@@ 1
mili@@ 1
pland 1
ever-@@ 1
welcoming 1
volcan@@ 1
plagued 1
istan 1
wild-@@ 1
SF@@ 1
ket-@@ 1
deployment 1
35.@@ 1
destroyer 1
occa@@ 1
thread 1
payments 1
dugout 1
Call@@ 1
Stage 1
tionally 1
regions 1
diers 1
joying 1
0,000 1
relocation 1
Bill@@ 1
tuna 1
Develop@@ 1
caves 1
stric@@ 1
compas@@ 1
prohibits 1
clinch 1
insec@@ 1
Oklahom@@ 1
dging 1
near@@ 1
Phillies 1
politic@@ 1
daring 1
argues 1
wolves 1
aced 1
proper@@ 1
JP 1
º 1
gau@@ 1
eball 1
renew@@ 1
eter@@ 1
cultures 1
traffic@@ 1
little-@@ 1
civ@@ 1
thi 1
crashes 1
olled 1
reli 1
conclu@@ 1
mund@@ 1
plantation 1
decad@@ 1
sugges@@ 1
sk 1
investig@@ 1
wel@@ 1
bigg@@ 1
Hick@@ 1
pullout 1
skies 1
sud@@ 1
Trial 1
3.0 1
4.0 1
trav 1
mises 1
1.1 1
®@@ 1
û@@ 1
š@@ 1
ï@@ 1
š 1
holi@@ 1
betting 1
festi@@ 1
20s 1
voluntary 1
offenses 1
command@@ 1
labor 1
verage 1
flooding 1
morale 1
pha 1
prehistoric 1
athle@@ 1
convic@@ 1
smil 1
intermit@@ 1
milit@@ 1
wholly 1
tighter 1
compan@@ 1
ount 1
S.C. 1
nett 1
kok 1
suspec@@ 1
etr@@ 1
ein 1
scrap 1
techni@@ 1
1/2-@@ 1
Agg@@ 1
ICC 1
medicines 1
back-@@ 1
eums 1
Bec 1
ĕ@@ 1
lounge 1
pro-@@ 1
11:@@ 1
printing 1
16,@@ 1
34-@@ 1
footing 1
alore 1
bass@@ 1
premise 1
Pr 1
machin@@ 1
Pam@@ 1
till@@ 1
immedi@@ 1
child-@@ 1
lack@@ 1
pictu@@ 1
altitude 1
tet 1
ferred 1
Starr 1
firearms 1
Sylvia 1
unified 1
Ravens 1
Goldman 1
Mountains 1
concep@@ 1
Heinz 1
regulations 1
Glob@@ 1
Superior 1
ocious 1
runner-up 1
downgraded 1
ilia 1
outspoken 1
Glen 1
Cedar 1
Browne 1
Mans@@ 1
Samsung 1
aims 1
Emmy 1
Krish@@ 1
nan 1
Broadcasting 1
purch@@ 1
umpire 1
Physics 1
//www.@@ 1
Amir 1
Steele 1
preceding 1
retains 1
arities 1
spectrum 1
Cherokee 1
censorship 1
namely 1
Freeman 1
Costa 1
Mesa 1
Barr 1
Shank@@ 1
regener@@ 1
Thailand 1
Azer@@ 1
Porsche 1
thriving 1
comparisons 1
Gill@@ 1
Trevor 1
establishments 1
ballot 1
segments 1
Penguins 1
mented 1
Chart 1
Restaur@@ 1
tists 1
bullying 1
Schol@@ 1
explic@@ 1
Iraqis 1
Geoff 1
Tate 1
discontinued 1
Naz@@ 1
areth 1
Pennsylvania 1
ruth@@ 1
Stories 1
poor@@ 1
maximize 1
intensive 1
velocity 1
Buddhism 1
Lap@@ 1
Zam@@ 1
substantially 1
anding 1
laboratory 1
sdale 1
Hu 1
liable 1
alumni 1
blan@@ 1
limited-@@ 1
Enron 1
Regina 1
rivalry 1
400-@@ 1
Kramer 1
depicts 1
decorative 1
cache 1
cleanup 1
Keen@@ 1
Township 1
of-the-@@ 1
docum@@ 1
Dha@@ 1
Aur@@ 1
Sang@@ 1
Symphony 1
chefs 1
Munich 1
effic@@ 1
rotating 1
shment 1
prime@@ 1
Satur@@ 1
depict 1
Holocaust 1
Holoc@@ 1
remarked 1
Panthers 1
inflammatory 1
temperatures 1
anten@@ 1
Hastings 1
multimedia 1
merge 1
depu@@ 1
awaited 1
planting 1
timely 1
McCarthy 1
disks 1
Enri@@ 1
expectedly 1
transferring 1
Dodgers 1
bbon 1
Alb@@ 1
Lagos 1
Budget 1
100th 1
Patri@@ 1
notation 1
arrison 1
Bay@@ 1
vot@@ 1
Edwin 1
adher@@ 1
broaden 1
ende@@ 1
Seahawks 1
Cock@@ 1
onstage 1
Depression 1
famously 1
Archives 1
names@@ 1
Agu@@ 1
cultivated 1
refined 1
berto 1
accessible 1
variants 1
O'Ne@@ 1
recount 1
semi@@ 1
Tyrone 1
scribed 1
recreation 1
Tut@@ 1
orial 1
Continu@@ 1
inguished 1
Volvo 1
specimen 1
-based 1
Lincol@@ 1
Northwestern 1
Book@@ 1
FC 1
Tiff@@ 1
Speaker 1
Ski 1
Dubai 1
doses 1
chrom@@ 1
cancellation 1
strategic 1
frenzy 1
shipment 1
presentations 1
Chennai 1
1930s 1
rails 1
variant 1
Adel@@ 1
Patriot 1
analysis 1
profes@@ 1
middle@@ 1
vendor 1
topping 1
Literature 1
Augu@@ 1
Europa 1
black-@@ 1
Saturn 1
missile 1
artery 1
Richard@@ 1
CDC 1
firms 1
closed-@@ 1
enroll 1
Fire@@ 1
Vor@@ 1
Prud@@ 1
north-@@ 1
Christianity 1
compilation 1
bodyguards 1
Crude 1
nutrition 1
fiscal 1
expanded 1
Miguel 1
division 1
repairs 1
itably 1
Andr@@ 1
kilometer 1
Yuri 1
broadcasts 1
apparatus 1
Leeds 1
rels 1
Lid@@ 1
Natural 1
omitted 1
ologists 1
attendant 1
Two-@@ 1
executives 1
sul 1
competence 1
Maur@@ 1
mascot 1
ribu@@ 1
resurrec@@ 1
mounted 1
Willi@@ 1
Upper 1
Hungary 1
Poland 1
toire 1
dergar@@ 1
obstruc@@ 1
Bordeaux 1
Hori@@ 1
ston-based 1
Standing 1
mobility 1
uniqu@@ 1
Picasso 1
paintings 1
celebrates 1
Boyd 1
Ferguson 1
ance-@@ 1
Govern@@ 1
businessman 1
Crom@@ 1
competed 1
obsolete 1
Hector 1
Directors 1
pianist 1
bedro@@ 1
arresting 1
odus 1
Plans 1
Medicine 1
Deputy 1
Tech 1
Watkins 1
versatile 1
SBC 1
Havana 1
Toshi@@ 1
Serbian 1
Reich 1
billions 1
captures 1
Guatem@@ 1
Working 1
Illu@@ 1
Nile 1
ML@@ 1
psychiatric 1
Vic 1
Zhou 1
Brennan 1
drastically 1
Microsoft 1
paved 1
Delaware 1
Stir@@ 1
Teleph@@ 1
assert 1
drills 1
networking 1
Kenzie 1
agonists 1
geons 1
evol@@ 1
baum 1
surviving 1
Monte 1
Rhin@@ 1
Americ@@ 1
Bologna 1
Contest 1
tier@@ 1
Chel@@ 1
Nolan 1
Marketing 1
leverage 1
Ware 1
announcement 1
sacks 1
Mellon 1
eans 1
hman 1
hazards 1
euph@@ 1
emis@@ 1
geo@@ 1
Cors@@ 1
insur@@ 1
heit 1
doubled 1
hotels 1
Downtown 1
Chip 1
Kirk@@ 1
Gateway 1
Emerson 1
Federal 1
ership 1
Ober@@ 1
Dru 1
Associate 1
Ral@@ 1
presumed 1
perennial 1
anche 1
Henderson 1
Fou@@ 1
Denis 1
Collection 1
Shore 1
Carr@@ 1
Brighton 1
Kore@@ 1
Waco 1
collaborating 1
contributing 1
planners 1
angelo 1
Albany 1
Kelley 1
Sanford 1
vement 1
terrestrial 1
horizon 1
databases 1
Combat 1
headquarters 1
17,@@ 1
reimbur@@ 1
Denmark 1
overshadowed 1
haven 1
lawless 1
Neu@@ 1
Products 1
Rivers 1
tren@@ 1
Ped@@ 1
definitive 1
Section 1
abling 1
feld 1
dismay 1
dify 1
Quebec 1
Nation@@ 1
Beirut 1
equi@@ 1
liance 1
McLaren 1
Mechan@@ 1
condemned 1
immigrant 1
Isaac 1
Michel@@ 1
Nag@@ 1
Hiroshima 1
Sist@@ 1
Western 1
Events 1
vice-president 1
memorabilia 1
etz 1
Fortune 1
Parade 1
Joy@@ 1
stripped 1
licensing 1
Aber@@ 1
ected 1
sylvania 1
Rang@@ 1
1880 1
Ramos 1
Julio 1
Ernest 1
Prairie 1
allied 1
Secretary 1
Information 1
Wei@@ 1
urry 1
Copa 1
Cuba 1
Flyers 1
Ukrainian 1
loosely 1
Winston 1
Bentley 1
itance 1
proced@@ 1
Halifax 1
Mecca 1
lei@@ 1
reputed 1
presumably 1
Savannah 1
atment 1
residents 1
successes 1
Califor@@ 1
interro@@ 1
vigor@@ 1
Dag@@ 1
Traditional 1
lively 1
Metro 1
Graphic 1
ussion 1
abund@@ 1
Atlan@@ 1
vier 1
cinemat@@ 1
Instr@@ 1
Hugo 1
Torres 1
Horn 1
industrial 1
volunteered 1
credentials 1
Dynasty 1
Mali@@ 1
prescription 1
herbs 1
Athens 1
Clifford 1
uling 1
ardi@@ 1
activated 1
classification 1
dubious 1
Alto 1
provi@@ 1
Neville 1
Jav@@ 1
Wanderers 1
Warriors 1
esco 1
saturated 1
defic@@ 1
rout@@ 1
Avon 1
RCA 1
cite 1
son-in-law 1
Mavericks 1
Nob@@ 1
onry 1
subsidized 1
hypothesis 1
ranks 1
Belgian 1
Pitts@@ 1
burg 1
Amster@@ 1
revive 1
Latinos 1
Gel@@ 1
ravaged 1
decim@@ 1
reluctantly 1
Coal 1
inspect 1
warehouse 1
margin@@ 1
Guinea 1
sponsors 1
Chur@@ 1
inson 1
Macintosh 1
Cities 1
predomin@@ 1
totals 1
comprises 1
Tus@@ 1
Separately 1
Dowell 1
Hurricanes 1
mobilized 1
synchr@@ 1
onized 1
technician 1
Winnipeg 1
overwhelmingly 1
Cash@@ 1
Ant@@ 1
Cynthia 1
Prof@@ 1
Tip@@ 1
Clim@@ 1
replic@@ 1
architect 1
filing 1
line-up 1
etown 1
Next@@ 1
worsen@@ 1
pering 1
urgency 1
deduc@@ 1
prolific 1
substanti@@ 1
rano 1
Coca-@@ 1
neth 1
Warwick 1
Vermont 1
Chamber 1
Summit 1
eux 1
Huck@@ 1
souven@@ 1
disagreed 1
Dul@@ 1
Generation 1
recommends 1
Ltd 1
porter 1
varying 1
Avery 1
Mann@@ 1
plotting 1
lian 1
Welch 1
reportedly 1
intol@@ 1
lunar 1
Brazilian 1
Salvador 1
graphs 1
ANC 1
Agency 1
Consum@@ 1
Olympic 1
1940s 1
genetically 1
Ghana 1
Hindu@@ 1
black-and-white 1
loy 1
assistants 1
tiles 1
Meas@@ 1
Kari@@ 1
Perform@@ 1
merger 1
Jenni@@ 1
uni 1
Dob@@ 1
tractor 1
rematch 1
awarding 1
Nuclear 1
Pakistanis 1
hazardous 1
Horton 1
bamboo 1
ppe 1
spatial 1
Department 1
Leslie 1
Connec@@ 1
pitches 1
processor 1
late-night 1
Flam@@ 1
40,000 1
Bulgarian 1
persecution 1
storage 1
Jerusalem 1
homicide 1
prescri@@ 1
memorial 1
illustrates 1
Capital 1
alogue 1
convicted 1
Mash@@ 1
wingspan 1
Morg@@ 1
Nazis 1
solar 1
markings 1
Forbes 1
illustration 1
Lodge 1
Shaw 1
deleg@@ 1
valu@@ 1
interpretations 1
Traders 1
lings 1
narcotics 1
geoning 1
Aviv 1
Smith@@ 1
interactive 1
acknowledged 1
PlayStation 1
Apart 1
Dudley 1
Chapter 1
Newspapers 1
Independence 1
Jakarta 1
Winners 1
Ot@@ 1
sion-@@ 1
Derrick 1
Higgins 1
Richmond 1
Rhodes 1
free-@@ 1
compositions 1
Joyce 1
Baker 1
Rs 1
documented 1
Rudd 1
thms 1
coher@@ 1
Stam@@ 1
eradic@@ 1
Dj@@ 1
alog 1
Comcast 1
monopoly 1
emission 1
Aj@@ 1
Tog@@ 1
2-year-old 1
Nikol@@ 1
tractors 1
bombing 1
Tul@@ 1
Ground 1
Amsterdam 1
Lamar 1
Southeastern 1
detonated 1
preced@@ 1
provisions 1
Marri@@ 1
revived 1
Ira@@ 1
accumulate 1
strength@@ 1
teries 1
Known 1
Progressive 1
Medal 1
icians 1
Governor 1
itable 1
gath@@ 1
fellowship 1
Frances 1
Eri@@ 1
Ballet 1
Edmon@@ 1
exhibition 1
Caesar 1
Zimmer@@ 1
Prix 1
8,000 1
Michel 1
Elementary 1
netted 1
emigr@@ 1
corporation 1
Masters 1
emigrated 1
Nov. 1
Toul@@ 1
Spider-@@ 1
Elsewhere 1
retaliation 1
aboard 1
Seag@@ 1
Sutherland 1
regional 1
Harbour 1
Andreas 1
Yak@@ 1
Yorkshire 1
guarding 1
orchestrated 1
Tha@@ 1
conventions 1
Stefan 1
Manny 1
Tall@@ 1
imported 1
ylene 1
tenants 1
tenant 1
Pradesh 1
Apache 1
Dutch 1
Hours 1
maintained 1
mour@@ 1
Strauss 1
Eil@@ 1
distribution 1
Wrest@@ 1
Fren@@ 1
Portland 1
suspected 1
Software 1
eval 1
organism 1
curriculum 1
Fuk@@ 1
Eis@@ 1
currency 1
Pole 1
swung 1
Irvine 1
Wer@@ 1
Melvin 1
Monte@@ 1
Memorial 1
ke-@@ 1
filters 1
Gis@@ 1
ilitary 1
blings 1
avert 1
year-round 1
erals 1
Indy 1
Mexicans 1
-of-@@ 1
seated 1
DNA 1
implications 1
Wireless 1
Princeton 1
Zu@@ 1
notification 1
unci@@ 1
Early 1
assurances 1
detected 1
policemen 1
surgeons 1
Mongol@@ 1
notable 1
substr@@ 1
Compaq 1
Industry 1
Bri 1
BCE 1
instructor 1
vill@@ 1
efficiently 1
Islanders 1
Sources 1
detained 1
decreasing 1
invention 1
intake 1
Homeland 1
marginal 1
Luc 1
biblical 1
exha@@ 1
affiliate 1
round-@@ 1
Teams 1
tumbled 1
Bolton 1
Liverpool 1
Spaniard 1
interval 1
Baptist 1
revolt 1
adjour@@ 1
ambassador 1
transported 1
Fit@@ 1
Foundation 1
amen@@ 1
cuits 1
historically 1
tablets 1
Hungarian 1
promoter 1
Language 1
summoned 1
launched 1
opping 1
turally 1
explosions 1
Thornton 1
Morocco 1
Enterprise 1
Bradley 1
drive-@@ 1
Ill@@ 1
broch@@ 1
concussion 1
liaison 1
Production 1
Aziz 1
development 1
predecessor 1
sanitation 1
Xinhua 1
infr@@ 1
-time 1
dden 1
Adults 1
Kenneth 1
microw@@ 1
Dome 1
impe@@ 1
1,500 1
Officer 1
settlement 1
Jacobs 1
Ham 1
ancers 1
issued 1
ophy@@ 1
accelerating 1
vest 1
excur@@ 1
representation 1
vern 1
facilities 1
undertaken 1
fraction 1
Advertising 1
infectious 1
sumption 1
Junction 1
mound 1
boasts 1
specul@@ 1
Royals 1
resear@@ 1
geared 1
debu@@ 1
nity 1
merits 1
Skinner 1
demolished 1
Lion@@ 1
revolutionary 1
elimin@@ 1
onders 1
stipul@@ 1
Hammond 1
Vall@@ 1
Mumbai 1
Studios 1
Sanchez 1
Quartet 1
adjustments 1
Mason 1
eliminating 1
Detro@@ 1
Jeter 1
Ethiopian 1
1945 1
inadvertently 1
Conc@@ 1
rival 1
transforming 1
sioned 1
Arab 1
Wester@@ 1
prevailing 1
Crossing 1
Scienti@@ 1
employer 1
Motor@@ 1
Adri@@ 1
Lima 1
compartment 1
Cavalry 1
administrative 1
Liver@@ 1
manu@@ 1
Shep@@ 1
manuscripts 1
oters 1
Greece 1
nois@@ 1
Ud@@ 1
Sask@@ 1
Barcelona 1
Madrid 1
defiant 1
Nan@@ 1
occupants 1
prompting 1
thouse 1
transport 1
Dhar@@ 1
disadvantage 1
azar 1
Co-@@ 1
flush 1
enables 1
Pag@@ 1
inducted 1
Cho 1
Hugh@@ 1
Alle@@ 1
graffiti 1
Sahara 1
var 1
Benson 1
high-tech 1
receiver 1
signer 1
homeland 1
Omaha 1
Association 1
Palace 1
Fay@@ 1
dividing 1
cogni@@ 1
astronaut 1
5.6 1
5.8 1
Duncan 1
wage 1
tasked 1
Lock@@ 1
ó 1
Zel@@ 1
downturn 1
convictions 1
pressures 1
Bah@@ 1
intern 1
catalogue 1
lucrative 1
Karl@@ 1
Advanced 1
esman 1
Monaco 1
admiration 1
debating 1
Rove 1
mathematical 1
equation 1
ographic 1
PCs 1
follow-up 1
supplying 1
patent 1
survives 1
legacy 1
tress 1
siding 1
user-@@ 1
engineers 1
manufacturing 1
nance 1
Alison 1
obscure 1
damaging 1
Flint 1
Front 1
O'Connor 1
bids 1
burial 1
accompl@@ 1
Parks 1
Cinc@@ 1
Mayo 1
stine 1
Schilling 1
alternating 1
vacant 1
water-@@ 1
atrocities 1
Hunt@@ 1
encourages 1
reliability 1
Places 1
idated 1
continuous 1
Trade 1
assassinated 1
ancestry 1
attorneys 1
Kon@@ 1
Sen 1
F1 1
Quinc@@ 1
ean@@ 1
Java 1
lens 1
kova 1
Bic@@ 1
Marcus 1
indivi@@ 1
royalties 1
inventor 1
zu@@ 1
disputes 1
Editors 1
Laurent 1
Rhode 1
steep 1
oust 1
plates 1
Dex@@ 1
Laboratory 1
shortened 1
authorized 1
slain 1
Racing 1
nevertheless 1
Low@@ 1
Oz@@ 1
54-@@ 1
neighbouring 1
Scul@@ 1
Design 1
Rudy 1
consulting 1
moti@@ 1
White@@ 1
documentaries 1
Journalism 1
editions 1
Commissioner 1
Harding 1
Massachusetts 1
publications 1
Nel@@ 1
Farm@@ 1
Caf@@ 1
blocking 1
restrictive 1
heter@@ 1
seize 1
exceeds 1
tments 1
luggage 1
consecutive 1
hastily 1
Bali 1
combinations 1
Succ@@ 1
alid 1
deadly 1
Trojans 1
Statis@@ 1
viable 1
obligations 1
dependence 1
fairness 1
Studies 1
Christi@@ 1
photographer 1
Toledo 1
supervision 1
migr@@ 1
ouri@@ 1
Stoke 1
inev@@ 1
itability 1
whereby 1
first-time 1
arguably 1
universally 1
partnerships 1
steadily 1
geny 1
sympt@@ 1
cooperating 1
interpre@@ 1
disrup@@ 1
Judith 1
climate 1
emerged 1
adz@@ 1
situated 1
Sterling 1
explanations 1
boosting 1
amid@@ 1
broker 1
white-@@ 1
veterans 1
citing 1
components 1
ropolis 1
roadside 1
Punjab 1
durable 1
stark 1
proxim@@ 1
tion-@@ 1
vehic@@ 1
trio 1
Likewise 1
contends 1
adjacent 1
comprising 1
inclu@@ 1
rumored 1
facilit@@ 1
surplus 1
ensem@@ 1
shrugged 1
Disp@@ 1
chanting 1
applause 1
cataly@@ 1
flexibility 1
acknowledging 1
modeled 1
mandated 1
processed 1
declaration 1
calculations 1
enabled 1
lending 1
ally-@@ 1
Catholicism 1
Illustrated 1
dispatch 1
seniors 1
two-year 1
eners 1
hugely 1
regulation 1
phenomenon 1
valent 1
lessness 1
coincide 1
pulsion 1
settl@@ 1
outset 1
take-@@ 1
13-year-old 1
openness 1
constituted 1
preliminary 1
epidemic 1
setbacks 1
benefited 1
ecting 1
brevi@@ 1
atop 1
defici@@ 1
strateg@@ 1
levi@@ 1
Expres@@ 1
accelerated 1
juven@@ 1
unlawful 1
lure 1
tility 1
Veter@@ 1
Parkway 1
suburb 1
one-year 1
plex@@ 1
judgments 1
Speedway 1
patterns 1
coli 1
constr@@ 1
medium-sized 1
feed@@ 1
descended 1
disrupted 1
restrial 1
preceded 1
eleven@@ 1
comings 1
Tele@@ 1
seeks 1
80-@@ 1
25-year-old 1
concentr@@ 1
miti@@ 1
employ@@ 1
brother-in-law 1
HR 1
exclusion 1
fertili@@ 1
sleeve 1
12-year-old 1
breach 1
relies 1
Kemp@@ 1
confron@@ 1
Oriental 1
Lie@@ 1
17-year-old 1
Riy@@ 1
reducing 1
liberation 1
thrust 1
applic@@ 1
eigh 1
collective 1
unemployment 1
herds 1
reserves 1
lified 1
endurance 1
libraries 1
supermarkets 1
lawy@@ 1
examination 1
Tan 1
mammals 1
® 1
layers 1
angered 1
eties 1
Robbins 1
HOUT 1
thered 1
Ster@@ 1
Resist@@ 1
Port 1
assess 1
privil@@ 1
privileges 1
eim 1
Democrats 1
diameter 1
counties 1
ideology 1
reflec@@ 1
vener@@ 1
Louis@@ 1
grandson 1
qualification 1
halls 1
fluence 1
exhibited 1
troubling 1
astoni@@ 1
scrambled 1
tarian 1
Dalton 1
aler 1
survey 1
lman 1
9.5 1
prosperous 1
clad 1
Outside 1
Nobel 1
[...]
